{
  "version": "1.0",
  "truncation": null,
  "padding": null,
  "added_tokens": [
    {
      "id": 0,
      "content": "<|endoftext|>",
      "single_word": false,
      "lstrip": false,
      "rstrip": false,
      "normalized": false,
      "special": true
    },
    {
      "id": 1,
      "content": "<|pad|>",
      "single_word": false,
      "lstrip": false,
      "rstrip": false,
      "normalized": false,
      "special": true
    }
  ],
  "normalizer": null,
  "pre_tokenizer": {
    "type": "ByteLevel",
    "add_prefix_space": false,
    "trim_offsets": true,
    "use_regex": true
  },
  "post_processor": null,
  "decoder": {
    "type": "ByteLevel",
    "add_prefix_space": true,
    "trim_offsets": true,
    "use_regex": true
  },
  "model": {
    "type": "BPE",
    "dropout": null,
    "unk_token": null,
    "continuing_subword_prefix": null,
    "end_of_word_suffix": null,
    "fuse_unk": false,
    "byte_fallback": false,
    "ignore_merges": false,
    "vocab": {
      "<|endoftext|>": 0,
      "<|pad|>": 1,
      "!": 2,
      "(": 3,
      ")": 4,
      ",": 5,
      "-": 6,
      ".": 7,
      "0": 8,
      "1": 9,
      "2": 10,
      "3": 11,
      "4": 12,
      "5": 13,
      "8": 14,
      "9": 15,
      ":": 16,
      "?": 17,
      "A": 18,
      "H": 19,
      "S": 20,
      "c": 21,
      "e": 22,
      "i": 23,
      "l": 24,
      "p": 25,
      "r": 26,
      "t": 27,
      "y": 28,
      "¡": 29,
      "¢": 30,
      "£": 31,
      "¤": 32,
      "¥": 33,
      "¦": 34,
      "§": 35,
      "¨": 36,
      "©": 37,
      "«": 38,
      "¯": 39,
      "°": 40,
      "±": 41,
      "²": 42,
      "³": 43,
      "´": 44,
      "µ": 45,
      "¶": 46,
      "·": 47,
      "¸": 48,
      "¹": 49,
      "º": 50,
      "»": 51,
      "¼": 52,
      "½": 53,
      "¾": 54,
      "¿": 55,
      "Â": 56,
      "Ð": 57,
      "Ñ": 58,
      "â": 59,
      "Ċ": 60,
      "Ġ": 61,
      "Ģ": 62,
      "ģ": 63,
      "Ĥ": 64,
      "ĥ": 65,
      "Ħ": 66,
      "ħ": 67,
      "Ĩ": 68,
      "ĩ": 69,
      "Ī": 70,
      "ī": 71,
      "Ĭ": 72,
      "ĭ": 73,
      "Į": 74,
      "į": 75,
      "İ": 76,
      "ı": 77,
      "Ĳ": 78,
      "ĳ": 79,
      "Ĵ": 80,
      "ĵ": 81,
      "Ķ": 82,
      "ķ": 83,
      "ĸ": 84,
      "Ĺ": 85,
      "ĺ": 86,
      "Ļ": 87,
      "ļ": 88,
      "Ľ": 89,
      "ľ": 90,
      "Ŀ": 91,
      "ŀ": 92,
      "Ł": 93,
      "ł": 94,
      "Ń": 95,
      "ĠÐ": 96,
      "Ð¾": 97,
      "Ð°": 98,
      "Ð¸": 99,
      "Ðµ": 100,
      "Ð»": 101,
      "ÑĤ": 102,
      "ÑĢ": 103,
      "Ñģ": 104,
      "Ð½": 105,
      "Ð¾Ð": 106,
      "Ñĥ": 107,
      "Ðº": 108,
      "Ð²": 109,
      "Ð»Ð¸": 110,
      "ĠÐ¿": 111,
      "ÑĨ": 112,
      "Ñı": 113,
      "ÑĤÐ¸": 114,
      "Ð°Ð": 115,
      "ĠÑģ": 116,
      "ĠÐ²": 117,
      "âĢ": 118,
      "Ñĭ": 119,
      "ÑĮ": 120,
      "âĢĵ": 121,
      "Ð»Ð¸ÑĨ": 122,
      "ÑĤÐ¸ÑĢ": 123,
      "¨ÑĤÐ¸ÑĢ": 124,
      "Ð¼": 125,
      "¨ÑĤÐ¸ÑĢÐ»Ð¸ÑĨ": 126,
      "Ñĩ": 127,
      "Ð´": 128,
      "ĠÐ½": 129,
      "Ð°Ð»": 130,
      "ÐµÑĢ": 131,
      "ÑĪ": 132,
      "ĠÐ¸": 133,
      "Ñİ": 134,
      "ĠÐ¨ÑĤÐ¸ÑĢÐ»Ð¸ÑĨ": 135,
      "ĠÐ¾": 136,
      "ÐµÑĤ": 137,
      "ÐµÐ": 138,
      "ÑĤÐ¾": 139,
      "ĠÐº": 140,
      "ÐµÐ»": 141,
      "Ð¾Ð´": 142,
      "ĠÐ´": 143,
      "ĠâĢĵ": 144,
      "Ñħ": 145,
      "ĠÑĥ": 146,
      "Ð¾Ð¼": 147,
      "ÐµÐ½": 148,
      "Ð¾Ð²": 149,
      "ĠÐ·": 150,
      "Ð¿": 151,
      "ÑģÑĤ": 152,
      "ĠÑĢ": 153,
      "ĠÐ±": 154,
      "ÑģÑı": 155,
      "Ð°Ð½": 156,
      "ĠÐ¿Ð¾": 157,
      "Ð¸Ð»": 158,
      "Ð¨ÑĤÐ¸ÑĢÐ»Ð¸ÑĨ": 159,
      "ĠÐ½Ð°": 160,
      "ĠÐ¼": 161,
      "Ð°Ð·": 162,
      "ĠÑĤ": 163,
      "Ð¸ÑĤ": 164,
      "Ð·": 165,
      "Ð±": 166,
      "³Ð¾": 167,
      "ĠÐ½Ðµ": 168,
      "Ð»ÐµÑĢ": 169,
      "ĠÐ¿ÑĢ": 170,
      "Ð°Ñģ": 171,
      "Â«": 172,
      "Â»": 173,
      "ľÑİ": 174,
      "Ð¾Ñģ": 175,
      "Ð¾Ð¹": 176,
      "ÑĦ": 177,
      "ľÑİÐ»": 178,
      "ĠÐ¿Ð¾Ð´": 179,
      "Ð°Ðº": 180,
      "ľÑİÐ»Ð»ÐµÑĢ": 181,
      "ĠÑĩ": 182,
      "Ð¾ÑĢ": 183,
      "Ð¸Ð½": 184,
      "ÑĥÐ¼": 185,
      "ĠÂ«": 186,
      "Ð½Ð¾": 187,
      "ÐºÐ¸": 188,
      "Ð°ÑĤ": 189,
      "Ð¹": 190,
      "Ð¸Ð´": 191,
      "Ð°Ð¼": 192,
      "ĠÐ³": 193,
      "Ð¾Ð½": 194,
      "Ð¾Ð»": 195,
      "Ð°ÑĢ": 196,
      "Ð°Ð´": 197,
      "ĠÐĴ": 198,
      "ĠÐ²Ñĭ": 199,
      "ĠÐľÑİÐ»Ð»ÐµÑĢ": 200,
      "Ð³": 201,
      "ÐµÐ¹": 202,
      "ÐµÐ´": 203,
      "ÐºÑĥ": 204,
      "ĠÐ¾ÑĤ": 205,
      "Ð°Ð²": 206,
      "Ð½Ñĥ": 207,
      "ÑĥÐ¼Ð°Ð»": 208,
      "ĠÐ»": 209,
      "Ð¾ÑĤ": 210,
      "Ð°ÐµÑĤ": 211,
      "ÑĪÐµÐ»": 212,
      "ĠÐµ": 213,
      "Ð¾Ð³": 214,
      "ÐµÐ¼": 215,
      "Ð¶": 216,
      "ÐµÑģ": 217,
      "ĠÐ¿Ð¾Ð´ÑĥÐ¼Ð°Ð»": 218,
      "Ñį": 219,
      "ĠÐŁ": 220,
      "Ð¸Ðº": 221,
      "ÑĢÑĥ": 222,
      "ÑĭÐ»": 223,
      "ĠÑĩÑĤÐ¾": 224,
      "ÐºÐ°": 225,
      "ĠÐ¿Ð¾Ð": 226,
      "Ð°Ð»Ð¸": 227,
      "ĠÐ·Ð°": 228,
      "Ñī": 229,
      "ÐµÐ²": 230,
      "ĠÑĢÐ°Ð·": 231,
      "ĠÐ¡": 232,
      "ĠÐĿ": 233,
      "ÑĪÐ¸": 234,
      "ĠÐ¾Ð½": 235,
      "âĢ¦": 236,
      "Ð¾Ð¶": 237,
      "Ð²ÐµÑĢ": 238,
      "Ð°Ð±": 239,
      "Ð°ÑĤÑĮ": 240,
      "Ð½Ñĭ": 241,
      "Ð¾Ð±": 242,
      "Ð°Ð¿": 243,
      "ĠÑģÐ²": 244,
      "Ð°Ñı": 245,
      "Ð¾Ðº": 246,
      "ÐµÐ·": 247,
      "ĠÑĤÐ¾": 248,
      "ĠÐļ": 249,
      "ÑĭÐ²": 250,
      "ĠÑı": 251,
      "ÑĤÑĢ": 252,
      "ÐºÑĢ": 253,
      "ÑıÑĤ": 254,
      "Ð¾Ñĩ": 255,
      "Ð°Ð»ÑģÑı": 256,
      "ĠÑį": 257,
      "Ð¸Ð¼": 258,
      "ĠÑģÐº": 259,
      "ĠÐ¸Ð·": 260,
      "ÑĤÐ¾ÑĢ": 261,
      "Ð¸Ð´ÐµÐ»": 262,
      "ĠÐĳ": 263,
      "ÑģÑĮ": 264,
      "ÐºÐ¾": 265,
      "ĠÐ°": 266,
      "Ð°ÑĪ": 267,
      "ĠÑģÐ¿": 268,
      "ĠÐ¾Ð±": 269,
      "Ð¸Ð²": 270,
      "Ð»Ðµ": 271,
      "ÑĢÐµ": 272,
      "ÑĥÑģ": 273,
      "Ð´Ð°": 274,
      "ĠÐ±ÑĭÐ»": 275,
      "Ð¼Ñĥ": 276,
      "Â».": 277,
      "Ð½Ð°": 278,
      "ÑıÐ»": 279,
      "Ð°Ð³": 280,
      "ĠÑģÐ»": 281,
      "ÑħÐ¾Ð´": 282,
      "ĠÑĥÐ²": 283,
      "Ð°Ð·Ð°Ð»": 284,
      "ĠÑĪ": 285,
      "ĠÐ¨": 286,
      "Ð¾Ð¿": 287,
      "ÑĥÑĩ": 288,
      "ĠÐ²Ñģ": 289,
      "ÐµÐ±": 290,
      "Ð½ÑĥÐ»": 291,
      "ÐĴ": 292,
      "ÐŁ": 293,
      "ĠÐĶ": 294,
      "ĠÐł": 295,
      "ĠÐ³Ð¾": 296,
      "ÑĢÐ¾Ñģ": 297,
      "Ð½Ð¾Ð¹": 298,
      "Ð²Ðµ": 299,
      "Ð°Ð¹": 300,
      "Ð¾Ð·": 301,
      "Ð¾Ð³Ð¾": 302,
      "Ð¼Ð°Ð½": 303,
      "ĠÐ¨ÑĤÐ¸ÑĢÐ»Ð¸ÑĨÐ°": 304,
      "ÐµÐ³Ð¾": 305,
      "Ð²ÐµÑĢÑĮ": 306,
      "ĠÑĥÐ²Ð¸Ð´ÐµÐ»": 307,
      "ĠÐ¶": 308,
      "Ð¸Ñģ": 309,
      "Ð¸ÑĤÑĮ": 310,
      "Ð³Ð¾": 311,
      "ĠÑĦ": 312,
      "ĠÐĲ": 313,
      "ĠÐĺ": 314,
      "ÑĥÑĤ": 315,
      "Ð°Ð½Ð¸": 316,
      "ÐľÑİÐ»Ð»ÐµÑĢ": 317,
      "Ð¸Ñĩ": 318,
      "Ð»ÑĮ": 319,
      "ÑĤÐ¸Ð»": 320,
      "ĠÐºÐ°Ðº": 321,
      "ĠÐŀ": 322,
      "Ð°Ð¶": 323,
      "ÐºÐ¸Ð¹": 324,
      "ĠÑģÐºÐ°Ð·Ð°Ð»": 325,
      "ĠÐĵ": 326,
      "ĠÐľ": 327,
      "ÐµÑģÑĤ": 328,
      "Ð»Ñı": 329,
      "ÑģÐº": 330,
      "ĠÐºÐ°Ð±": 331,
      "ÐµÐ½Ð¸": 332,
      "Ð°ÑģÑĮ": 333,
      "ÑĢÐ¾ÑģÐ¸Ð»": 334,
      "ĠÐºÐ°Ð±Ð¸Ð½": 335,
      "ĠÑĪÐµÐ»": 336,
      "Ð½Ð°Ð»": 337,
      "ÑĥÑİ": 338,
      "ĠÐ±Ñĭ": 339,
      "Ð¾Ð»ÑĮ": 340,
      "ĠÐºÐ°Ð±Ð¸Ð½ÐµÑĤ": 341,
      "ĠÑħ": 342,
      "Ð°Ñħ": 343,
      "ĠÐ¼Ð°ÑĪ": 344,
      "Ð¸ÑĤÐµ": 345,
      "ĠÐ¿ÑĢÐ¸": 346,
      "ĠÐ¾ÑĤÐºÑĢ": 347,
      "ĠÐ¿Ð¾Ð¿": 348,
      "ÐµÑĪ": 349,
      "Ð½Ð¸": 350,
      "ĠÑģÑĤ": 351,
      "ĠÐ¾Ðº": 352,
      "ÐµÐ³": 353,
      "ĠÐºÐ¾Ð½": 354,
      "ĠÐ´Ð²ÐµÑĢÑĮ": 355,
      "Ð°ÑģÑĤÐ¾ÑĢ": 356,
      "Ð¾ÑĢÐ¼Ð°Ð½": 357,
      "ÑĭÐ²Ð°ÐµÑĤ": 358,
      "Ð»Ð¾": 359,
      "ÑĥÐ´": 360,
      "Ð¾Ð²Ð°Ð»": 361,
      "ĠÑĤÑĢ": 362,
      "Â»,": 363,
      "Ð¾ÑģÑĮ": 364,
      "ĠÐĴÑĭ": 365,
      "ĠÐ¾ÑĤÐ²Ðµ": 366,
      "ÑıÑĤÑĮ": 367,
      "ĠÑįÑĤÐ¾": 368,
      "ĠÐĳÐ¾ÑĢÐ¼Ð°Ð½": 369,
      "ĠÐ¼Ð°ÑĪÐ¸Ð½": 370,
      "ÐµÐº": 371,
      "ÑĤÐ¾Ð¼": 372,
      "ÑĢÐ°": 373,
      "ĠÑģÑĤÐ¾": 374,
      "ÐµÐ¶": 375,
      "ĠÐ¿Ð¾Ñģ": 376,
      "Ð¸Ð»ÑģÑı": 377,
      "ĠÑĤÐ°Ðº": 378,
      "ĠÐµÐ¼Ñĥ": 379,
      "ĠÑģÐ²Ð¾": 380,
      "ÑĥÑģÑģ": 381,
      "ĠÐ²ÑģÐµ": 382,
      "ÐĿ": 383,
      "Ð¸Ð»Ð¸": 384,
      "ÐµÑĩ": 385,
      "ÑĥÑĢ": 386,
      "ĠÐ¿ÐµÑĢ": 387,
      "ĠÑģÐµÐ¹": 388,
      "ÑĭÐ¹": 389,
      "ĠÐ½Ð¾": 390,
      "ÐµÐ»ÑĮ": 391,
      "ĠÑĥÐ¿": 392,
      "ÑģÑĤÑĢÐµ": 393,
      "ĠÐ¿Ð¾Ð»": 394,
      "ĠÐ»Ñİ": 395,
      "ÑįÑĤ": 396,
      "ÑĢÑĥÐ³": 397,
      "Ð¡": 398,
      "ĠÐ¢": 399,
      "Ð¾ÑĪ": 400,
      "Ð¸ÑĪ": 401,
      "Ð»Ð°": 402,
      "Ð½Ðµ": 403,
      "Ð²ÐµÐ´": 404,
      "ĠÐ¿Ð°ÑģÑĤÐ¾ÑĢ": 405,
      "ĠÑģÐ¾": 406,
      "Ð°Ð»Ð°": 407,
      "ÑģÑĤÐ²": 408,
      "ĠÐµÐ³Ð¾": 409,
      "ĠÑģÐ¿ÑĢÐ¾ÑģÐ¸Ð»": 410,
      "ĠÐ¾ÑĤÐ²ÐµÑĤÐ¸Ð»": 411,
      "ÐµÑĨ": 412,
      "ÑĢÐ¾": 413,
      "Ð½Ð¾Ð¼": 414,
      "Ð½Ð¸Ðº": 415,
      "ÑĥÐ¶": 416,
      "Ð»Ð¸Ð²": 417,
      "ÑĨÐ¸": 418,
      "ĠÑģÐµÐ±": 419,
      "ĠÐ²Ð·": 420,
      "ÑĩÐ¸Ðº": 421,
      "ĠÑĥÐ¶": 422,
      "ĠÐ·Ð°Ðº": 423,
      "Ð¾Ð³Ð´Ð°": 424,
      "ĠÐ³Ð¾Ð»": 425,
      "Ð»ÑĮÐºÐ¾": 426,
      "Ðĵ": 427,
      "Ðļ": 428,
      "Ð¾ÑĪÐµÐ»": 429,
      "Ð¸ÑĢ": 430,
      "ÐµÑħ": 431,
      "Ð»Ñİ": 432,
      "Ð»ÐµÐ¹": 433,
      "ÑĤÐµ": 434,
      "ĠÑģÑĤÑĢ": 435,
      "ĠÐ²Ð¾Ð´": 436,
      "ĠÐºÑĢ": 437,
      "ÑģÑĤÑĮ": 438,
      "ĠÑĢÑĥÑģÑģ": 439,
      "ĠÐľÑİÐ»Ð»ÐµÑĢÐ°": 440,
      "ÐµÐ¼Ñĥ": 441,
      "ÑīÐµ": 442,
      "Ð½ÑĭÐ¹": 443,
      "ĠÑĤÐ¾Ð»ÑĮÐºÐ¾": 444,
      "ĠÐļÑįÑĤ": 445,
      "ÑħÐ¾Ð´Ð¸ÑĤ": 446,
      "ĠÑģÐµÐ¹ÑĦ": 447,
      "ĠÑĥÐ¶Ðµ": 448,
      "Ð¨": 449,
      "ÑĬ": 450,
      "Ð¸ÑģÑĤ": 451,
      "Ð»ÐµÐ½": 452,
      "ÐºÐµ": 453,
      "ÑıÐ²": 454,
      "Ð¼Ð¾ÑĤ": 455,
      "Ð´Ðµ": 456,
      "Ð´ÑĢÑĥÐ³": 457,
      "ĠÐ´Ð¾Ð¼": 458,
      "ÐµÐ½Ñı": 459,
      "Ð·Ð½": 460,
      "ĠÐ½ÐµÐ¼": 461,
      "ĠÐ¿ÑĢÐ¾": 462,
      "Ð°Ð¼Ð¸": 463,
      "Ð½ÑĥÑİ": 464,
      "Ð½ÑĭÐµ": 465,
      "ĠÑıÐ²": 466,
      "ĠÐ±ÑĭÐ»Ð¾": 467,
      "!Â»": 468,
      "ÐĹ": 469,
      "ĠÐ§": 470,
      "Ð»Ð°Ð³": 471,
      "ÑĤÑĮ": 472,
      "ÑģÐ¿": 473,
      "Ð²Ð¾Ð½": 474,
      "ÑĨÑĭ": 475,
      "ĠÐ²Ð¾Ð·": 476,
      "ÑĪÐµ": 477,
      "ĠÐ¾Ð´": 478,
      "ÐµÑĤÑĮ": 479,
      "ÐµÐ¿": 480,
      "ÐµÐ½ÑĤ": 481,
      "Ð¾Ð²Ð¾ÑĢ": 482,
      "ĠÐ·Ð½Ð°Ð»": 483,
      "ĠÑĢÐ°Ñģ": 484,
      "ĠÑĢÐ°Ð´": 485,
      "Ð½Ð¾Ðµ": 486,
      "ĠÐ³ÑĢ": 487,
      "ĠÐĴÐ¾ÑĤ": 488,
      "Ð°Ð»Ð¸ÑģÑĮ": 489,
      "ĠÑĢÐ°Ð·Ð²ÐµÐ´": 490,
      "Ð¸Ð¼Ð¾": 491,
      "ĠÐ¨Ð»Ð°Ð³": 492,
      "ÐµÑģÑĤÐ°Ð¿": 493,
      "ÐµÐ½Ð¸Ðµ": 494,
      "Ð»ÐµÐ¹ÑĪ": 495,
      "Ð¼Ð¾ÑĤÑĢ": 496,
      "ÐĲ": 497,
      "Ðł": 498,
      "ĠÑĪÐ¸": 499,
      "ĠÐ£": 500,
      "ÑĥÐ±": 501,
      "ÐºÐ¾Ð¹": 502,
      "ÐºÐ½ÑĥÐ»": 503,
      "ĠÑģÐ¾Ð±": 504,
      "ÑĩÐµÑĢ": 505,
      "ĠÐ½Ð°Ð´": 506,
      "ĠÐ½Ð°Ð¿": 507,
      "ÐµÑĢÐ»Ð¸": 508,
      "ĠÐ¨ÑĤÐ¸ÑĢÐ»Ð¸ÑĨÑĥ": 509,
      "ĠÐ´ÐµÐ»": 510,
      "ĠÑĥÐ´": 511,
      "Ð¾Ð¼Ð½": 512,
      "ÐµÐ½ÑĮ": 513,
      "ĠÐ·Ð°Ð¼": 514,
      "ÑģÑĤÐ°Ð²": 515,
      "ĠÐ²ÑĭÑĪÐµÐ»": 516,
      "ĠÐŁÐ»ÐµÐ¹ÑĪ": 517,
      "ĠÐĿÐ°": 518,
      "Ð½ÑĭÐ¼": 519,
      "ĠÐ³Ð¾ÑĢ": 520,
      "ĠÑģÐµÐ±Ñı": 521,
      "!!": 522,
      "Ðĳ": 523,
      "Ðŀ": 524,
      "Ġ1": 525,
      "Ð°Ñİ": 526,
      "Ð¸Ñħ": 527,
      "ÑĤÐ°": 528,
      "ÑĤÐµÑĢ": 529,
      "Ð½ÐµÑĢ": 530,
      "Ð½ÑıÐ»": 531,
      "ÑĥÑħ": 532,
      "ĠÑģÐ¸Ð´": 533,
      "ÑĭÑĪ": 534,
      "ÑĮÑı": 535,
      "Ð°Ð»ÑĮ": 536,
      "ÐµÑĤÐµ": 537,
      "ÐµÑĤÑģÑı": 538,
      "ĠÐºÐ¾": 539,
      "ĠÐ´Ð²": 540,
      "Ð¾Ð²ÐµÑĤ": 541,
      "ĠÐ·Ð½": 542,
      "Ð¿ÑıÑĤÑĮ": 543,
      "ĠÐ¼ÐµÐ½Ñı": 544,
      "ĠÑĤÑĢÑĥ": 545,
      "ĠÑĩÐµÑĢ": 546,
      "ĠÐ³Ð°Ð·": 547,
      "ĠÐ³ÐµÑģÑĤÐ°Ð¿": 548,
      "ĠÐ»ÐµÑģ": 549,
      "ĠÐ·Ð°ÑĪÐµÐ»": 550,
      "ĠÑģÐ»ÐµÐ´": 551,
      "ĠÐ³Ð¾Ð»Ð¾Ð²": 552,
      "ĠÑĢÐ°Ð·Ð²ÐµÐ´ÑĩÐ¸Ðº": 553,
      "?Â»": 554,
      "pÐ»Ð¸ÑĨ": 555,
      "ÐĶ": 556,
      "ĠÐ¯": 557,
      "ĠÐŃ": 558,
      "Ð°Ñĩ": 559,
      "Ð°ÑĪÐ¸": 560,
      "ÑĢÐ¾Ð²": 561,
      "ÑĢÐ°Ð²": 562,
      "ÑģÐ»": 563,
      "Ð½Ð¾Ð³Ð¾": 564,
      "Ð²ÐµÑĤ": 565,
      "ĠÐ¿p": 566,
      "ÑĨÐ°": 567,
      "ÑıÐ·": 568,
      "ÑĤÐ¸pÐ»Ð¸ÑĨ": 569,
      "ĠÐ²ÑĢ": 570,
      "Ð¼Ðµ": 571,
      "ÑĩÑĥ": 572,
      "Ð´Ð¸": 573,
      "ÐµÑĢÐ³": 574,
      "ÑİÑĢ": 575,
      "ĠÐºÐ¾ÑĢ": 576,
      "Ð¾Ð´Ð¸Ð½": 577,
      "ĠÑĥÑĤÑĢ": 578,
      "ĠÐ·Ð°Ð¿": 579,
      "ĠÐ±ÑĢ": 580,
      "ĠÐ±ÑĥÐ´": 581,
      "ĠÑĤÑĥ": 582,
      "Ð¾ÑģÐº": 583,
      "ĠÐ³Ð»": 584,
      "Ð¾Ð³Ñĥ": 585,
      "ĠÐ¿Ð¾Ð·": 586,
      "ĠÐ¿Ð¾Ðº": 587,
      "ĠÐ¡ÑĤ": 588,
      "ĠÐĿÐµ": 589,
      "ÑĪÐ¸ÑģÑĮ": 590,
      "ĠÐĳÐµÑĢÐ»Ð¸": 591,
      "ĠÐ¶Ðµ": 592,
      "ĠÐ¶ÐµÐ½": 593,
      "ÑĥÑİÑī": 594,
      "ĠÐ¾ÑĤÐºÑĢÑĭÐ»": 595,
      "ĠÐ»ÑİÐ±": 596,
      "ĠÐ²Ð¾Ð´ÐºÐ¸": 597,
      "Ð¢": 598,
      "Ð¯": 599,
      "ĠÐķ": 600,
      "ĠÐĹ": 601,
      "Ð¾p": 602,
      "ÐµÐºÑĢ": 603,
      "ÑĤÑİ": 604,
      "ÑĤÐ¾Ð±": 605,
      "ÑĢÐ°Ñģ": 606,
      "Ð½ÐºÐ¸": 607,
      "ÑĥÐ»": 608,
      "ÑĥÐº": 609,
      "ĠÑģÐµÐºÑĢ": 610,
      "Ð¼Ð¾ÑĪ": 611,
      "ĠÐ½ÐµÐ³Ð¾": 612,
      "Ð°Ð»Ð¾": 613,
      "ĠÐºÐ°ÑĢ": 614,
      "ĠÐ´Ð¾Ðº": 615,
      "Ð¾Ð²Ð°ÑĤÑĮ": 616,
      "ĠÐ·Ð°Ð´": 617,
      "Ð¿Ð¿": 618,
      "ĠÐ±Ð°ÑĢ": 619,
      "ĠÐ¼Ð½Ðµ": 620,
      "ĠÑĤÑĭ": 621,
      "Ð¸ÑĤÐ»ÐµÑĢ": 622,
      "Ð¸ÑĤÐµÐ»ÑĮ": 623,
      "Ð°ÑĢÐ¸": 624,
      "Ð³ÑĢ": 625,
      "ĠÐ»Ð¸": 626,
      "Ð°ÐµÑĤÑģÑı": 627,
      "ĠÐµÑīÐµ": 628,
      "ÑĢÑĥÐ¶": 629,
      "ÐºÐ°Ñı": 630,
      "Ð½Ð°Ñĩ": 631,
      "ĠÑĪÑĤ": 632,
      "ĠÐĶÐ°": 633,
      "ĠÐĶÐ²ÐµÑĢÑĮ": 634,
      "Ð»ÑİÑĩ": 635,
      "ĠÑģÐµÐ¹ÑĦÐ°": 636,
      "ĠÐŁÐ»ÐµÐ¹ÑĪÐ½ÐµÑĢ": 637,
      "ĠÑĩÐµÑĢÐµÐ·": 638,
      "ĠÐ³Ð°Ð·ÐµÑĤ": 639,
      "ĠÐ»ÐµÑģÑĥ": 640,
      "ÑİÑĢÐµÑĢ": 641,
      "ĠÐ³Ð»Ð°Ð·": 642,
      "ÑĤÑİÐ³": 643,
      "ĠÑģÐµÐºÑĢÐµÑĤ": 644,
      "ĠÐ´Ð¾ÐºÑĥÐ¼": 645,
      "Ðĺ": 646,
      "ĠÑĨ": 647,
      "ĠÐ¦": 648,
      "Ð¸Ð·Ð½": 649,
      "ÑĢÑı": 650,
      "ÑĢÑĭ": 651,
      "ÑģÐ»Ð¸": 652,
      "ÑģÐºÐ¸Ð¹": 653,
      "ÐºÐ»ÑİÑĩ": 654,
      "ĠÐ¿Ð¸ÑĪ": 655,
      "ÑĤÐ¸Ð²": 656,
      "ĠÑģÐ¾Ð²ÐµÑĤ": 657,
      "ĠÐ²Ð°Ñģ": 658,
      "ĠÐ²Ð¸Ð´": 659,
      "ĠÐ²ÑģÑĤÑĢÐµ": 660,
      "ĠÐ²Ð¾ÑĪÐµÐ»": 661,
      "Ð¼ÐµÐ½": 662,
      "Ð´Ð¾Ð¼": 663,
      "ÐµÑĢÐµÐ²": 664,
      "ĠÐ´Ð¾": 665,
      "ĠÐ´Ð°Ð»": 666,
      "ĠÐ´Ð¾Ð³": 667,
      "ĠÑĥÑģÐ»": 668,
      "ĠÑĥÑĤÑİÐ³": 669,
      "ĠÐ·Ð°Ð±": 670,
      "ĠÐ±ÐµÐ·": 671,
      "ĠÐ¿Ð¾Ñĩ": 672,
      "Ð¸Ð»ÑĮ": 673,
      "Ð¸Ð»Ð¾ÑģÑĮ": 674,
      "ĠÐ½Ð°Ñģ": 675,
      "ĠÐ¼Ð¾": 676,
      "Ð¸ÑĤÐ°Ð»": 677,
      "Ð·ÑĭÐ²Ð°ÐµÑĤ": 678,
      "ĠÐ¿ÑĢÐ¸Ð´": 679,
      "Ð¾ÑģÑĤÐ¸": 680,
      "ÑĦÐµ": 681,
      "Ð°Ð¼Ð¼": 682,
      "ĠÐ³ÑĢÑĥ": 683,
      "ĠÐĴÐ´ÑĢÑĥÐ³": 684,
      "ĠÐ²ÑĭÐ¿": 685,
      "Ð°ÐµÑĤÐµ": 686,
      "ÐµÐ¼Ñı": 687,
      "ÐµÑģÑĮ": 688,
      "ĠÐ¿Ð¾Ð±": 689,
      "ĠÐĿÑĥ": 690,
      "ÑĤÑĢÐ°": 691,
      "ĠÐ°Ð²": 692,
      "Ð°Ð½Ð¸Ñı": 693,
      "ĠÐŀÐ½": 694,
      "ĠÐĵÐ¸ÑĤÐ»ÐµÑĢ": 695,
      "ĠÐľÐ¾ÑģÐº": 696,
      "ÑģÐºÐ¾Ð¹": 697,
      "Ð¾Ð»ÑĮÐºÐ¾": 698,
      "ĠÐºÐ°Ð±Ð¸Ð½ÐµÑĤÐµ": 699,
      "ĠÐ¿Ð¾Ð¿ÑĢ": 700,
      "ĠÐĳÐ¾ÑĢÐ¼Ð°Ð½Ð°": 701,
      "ĠÑĥÐ¿Ð°Ð»": 702,
      "ÑģÑĤÑĢÐµÐ»Ð¸": 703,
      "ĠÐ¿Ð¾Ð»ÑĥÑĩ": 704,
      "ĠÐ»ÑİÐ´Ð¸": 705,
      "ĠÑĢÑĥÑģÑģÐºÐ¸Ð¹": 706,
      "ĠÐ´Ð¾Ð¼Ð°": 707,
      "ĠÑĪÐ¸ÑĦ": 708,
      "ÑĩÐµÑĢÐµÐ´": 709,
      "ĠÑĥÐ´Ð¸Ð²": 710,
      "ĠÑĤÑĢÑĥÑģ": 711,
      "ĠÐ³ÐµÑģÑĤÐ°Ð¿Ð¾": 712,
      "ĠÐŃÑĤÐ¾": 713,
      "ĠÐ²ÑĢÐµÐ¼Ñı": 714,
      "ĠÑĤÑĥÐ°Ð»": 715,
      "ĠÐ¡ÑĤÐ°Ð»Ð¸": 716,
      "ĠÐ¿Ð¸ÑĪÐµÑĤ": 717,
      "ĠÐ´Ð¾Ð³Ð°Ð´": 718,
      "Ð¾Ðµ": 719,
      "Ð¸Ð¹": 720,
      "Ð¸ÑģÑĮ": 721,
      "ÑĢÐ¸": 722,
      "ÑĢÐ¾Ð½": 723,
      "ÑģÐ½": 724,
      "Ð½Ñı": 725,
      "ÑĥÑĪ": 726,
      "ÐºÐ¾Ð¼": 727,
      "Ð²Ð°ÑĢ": 728,
      "Ð²Ð°Ð¹": 729,
      "ĠÐ¿Ð»": 730,
      "ĠÐ¿Ð°ÑĢ": 731,
      "ĠÑģÐ°Ð´": 732,
      "ĠÑģÐ¸Ð´ÐµÐ»": 733,
      "ĠÐ²Ð°ÑĪ": 734,
      "ÑĭÐµ": 735,
      "ÑĭÐ¼": 736,
      "ÑĩÐ°": 737,
      "ÑĩÐ½Ð¾": 738,
      "Ð´ÐµÐ»": 739,
      "ĠÐ½Ð¸": 740,
      "ĠÐ¸ÑģÐ¿": 741,
      "ĠÐ¾Ð¿ÑıÑĤÑĮ": 742,
      "ĠÐ¾ÑĩÐµÑĢÐµÐ´": 743,
      "ĠÐºÐ¾Ð»": 744,
      "ĠÐºÐ²Ð°ÑĢ": 745,
      "ÐµÐ»Ñı": 746,
      "ĠÐ´Ð°Ð²": 747,
      "ĠÐ´Ð»Ñı": 748,
      "ÑħÐ¾Ð¶": 749,
      "ÐµÐ½ÑĦ": 750,
      "ÐµÐ½Ð½Ð¾": 751,
      "ĠÐ·Ð´": 752,
      "ĠÐ±Ð¾Ð»ÑĮ": 753,
      "Ð°Ð½Ðµ": 754,
      "Ð°Ð½ÑĮ": 755,
      "ĠÐ¿Ð¾Ð½ÑıÐ»": 756,
      "ĠÐ½Ð°Ñĩ": 757,
      "ĠÐ¼Ð¸Ð¼Ð¾": 758,
      "ĠÑĤÐ°Ð¼": 759,
      "Ð±ÐµÑĢÐ³": 760,
      "ĠÐ¿ÑĢÐ¾Ð¼": 761,
      "ĠÐ¿ÑĢÐ¾Ð²Ð°Ð»": 762,
      "ĠÐ¿Ð¾Ð´Ð¾ÑĪÐµÐ»": 763,
      "Ð¾ÑĢÑĥ": 764,
      "Ð¸Ð½Ñĥ": 765,
      "Ð¸Ð´Ð¾ÑĢÑĥ": 766,
      "Ð°Ð¼Ð²Ð°Ð¹": 767,
      "ĠÐ³Ð´Ðµ": 768,
      "ĠÐ³Ð¾Ð²Ð¾ÑĢ": 769,
      "ĠÐ²ÑĭÐ·ÑĭÐ²Ð°ÐµÑĤ": 770,
      "Ð³Ð»Ñı": 771,
      "ÐµÐ¹ÑģÑĤÐ²": 772,
      "ÐºÑĥÑİ": 773,
      "ĠÐ»ÐµÑĤ": 774,
      "ĠÐ»Ð¸ÑĪ": 775,
      "ĠÐ¿Ð¾Ð¶": 776,
      "ĠÑĢÐ°Ð·Ð±": 777,
      "Ð°Ð±Ð¾ÑĤ": 778,
      "Ð¾Ð±Ð¾Ð²Ð°Ð»": 779,
      "ĠÑģÐ²ÐµÑĤ": 780,
      "ĠÐ¾Ð±ÑĬ": 781,
      "ÑĢÐµÑħ": 782,
      "ÑıÐ»ÑģÑı": 783,
      "ÑħÐ¾Ð´Ð¸ÑĤÑĮ": 784,
      "ĠÐ¨ÐµÐ»": 785,
      "ĠÐłÐ¾Ð´Ð¸Ð½": 786,
      "Ð°Ð¹ÑĤÐµ": 787,
      "ĠÑĦÐ¾Ð½": 788,
      "Ð°Ð½Ð¸Ðµ": 789,
      "ÑĭÐ²Ð°ÐµÑĤÑģÑı": 790,
      "Ð»Ð¾Ñħ": 791,
      "ĠÐ¼Ð°ÑĪÐ¸Ð½Ñĥ": 792,
      "ĠÑģÑĤÐ¾Ð»": 793,
      "ĠÐ§ÑĤÐ¾": 794,
      "ÐµÐ½ÑĤÑĭ": 795,
      "ĠÑĢÐ°Ð´Ð¸ÑģÑĤ": 796,
      "Ð¾Ð¼Ð½Ð¸Ð»": 797,
      "Ð°ÑİÑĤ": 798,
      "ĠÑģÐ»ÐµÐ´ÑĥÑİÑī": 799,
      "ĠÐºÐ¾ÑĢÐ¸Ð´Ð¾ÑĢÑĥ": 800,
      "ĠÐ¿Ð¾Ð·Ð²Ð¾Ð½": 801,
      "ĠÐĳÐµÑĢÐ»Ð¸Ð½Ñĥ": 802,
      "ĠÐ¾ÑĤÐºÑĢÑĭÐ»Ð°ÑģÑĮ": 803,
      "ĠÐľÐ¾ÑģÐºÐ²": 804,
      "ĠÐ¿Ð¾Ð¿ÑĢÐ¾Ð±Ð¾Ð²Ð°Ð»": 805,
      "ĠÐ´Ð¾Ð³Ð°Ð´Ð°Ð»ÑģÑı": 806,
      "ĠÐºÐ²Ð°ÑĢÑĤÐ¸ÑĢ": 807,
      "Ð£": 808,
      "Ðķ": 809,
      "Ġp": 810,
      "ĠÑħÐ¾Ð´Ð¸ÑĤÑĮ": 811,
      "Ð°ÑĤÐ¸": 812,
      "Ð°ÐµÐ²": 813,
      "Ð¸Ðµ": 814,
      "Ð¸Ð¾Ð½": 815,
      "Ð¸Ð°Ð½Ð¸": 816,
      "ÐµÐ»Ð¸": 817,
      "Ð»Ð°Ð´": 818,
      "Ð»ÐµÐ½Ð¸Ðµ": 819,
      "Ð»ÐºÐ½ÑĥÐ»": 820,
      "ÑĢÐµÐ´": 821,
      "ÑĢÐ°Ð»ÑģÑı": 822,
      "ÑģÐ°ÐµÐ²": 823,
      "Ð½Ð¸Ð¼": 824,
      "Ð²Ð°Ð½": 825,
      "Ð²ÐºÐ°": 826,
      "ĠÐ¿Ð¾Ð¼": 827,
      "ĠÐ¿Ð¾Ð²": 828,
      "ĠÐ¿Ð¸Ð²": 829,
      "ÑĨÐµÐ²": 830,
      "Ð°Ð³Ð¾": 831,
      "ĠÑģÐµÐ»": 832,
      "ĠÑģÐ°Ð¼": 833,
      "ĠÐ²Ð¸Ð»": 834,
      "ĠÐ²Ð°Ð¼": 835,
      "ĠÐ²Ð´ÑĢÑĥÐ³": 836,
      "ÑĭÑĤÑĮ": 837,
      "ÑĩÐ°Ñģ": 838,
      "Ð´Ñı": 839,
      "ĠÐ½Ð¸Ðº": 840,
      "Ð°Ð»Ð°ÑģÑĮ": 841,
      "ÐµÑĢÐ¸": 842,
      "ĠÐ¾ÑģÑĤ": 843,
      "ĠÐºÑĥ": 844,
      "ĠÐºÐ°Ð½": 845,
      "ĠÐºÐ¸ÑĢ": 846,
      "Ð¾Ð´Ñĥ": 847,
      "ĠÐ´ÑĥÐ¼Ð°Ð»": 848,
      "ĠÐ´ÐµÐ²": 849,
      "ĠÐ´Ð²ÐµÑĢ": 850,
      "ĠÐ´ÐµÐ½ÑĮ": 851,
      "ĠÐ´ÐµÐ¹ÑģÑĤÐ²": 852,
      "ĠÑĥÐ»Ð¸ÑĨ": 853,
      "ĠÑĥÐ±": 854,
      "ÐµÐ½Ð°": 855,
      "ÐµÐ½Ñĭ": 856,
      "Ð¾Ð²ÐµÐ´": 857,
      "Ð¿Ð¸Ñĩ": 858,
      "ÑģÑĤÐºÐ°": 859,
      "ĠÑĢÐµÑĪ": 860,
      "Ð°Ð½ÑĤ": 861,
      "Ð°Ð½Ð½Ð¾": 862,
      "ĠÐ¿Ð¾ÑĤÐ¾Ð¼": 863,
      "Ð¸Ð»Ð°": 864,
      "Ð¨ÑĤÐ¸ÑĢÐ»Ð¸ÑĨÑĥ": 865,
      "ĠÐ½Ð°ÑĤ": 866,
      "ĠÐ½Ð°Ðº": 867,
      "ĠÐ½Ð°ÑĥÑĩ": 868,
      "ĠÐ¼ÐµÐ»": 869,
      "ĠÐ¼Ð¸Ð½": 870,
      "ĠÐ¼Ð¾Ð¶": 871,
      "ĠÑĤÐµÐ±": 872,
      "Ð¸ÑĤÑģÑı": 873,
      "ÑĦÐ¸": 874,
      "ÑĦÐµÑģ": 875,
      "ĠÐ¿Ð¾Ð´ÑĬ": 876,
      "ĠÑĩÐµÐ¼": 877,
      "ĠÑĩÑĤÐ¾Ð±": 878,
      "Ð¾ÑĢÐ°": 879,
      "ĠÐ³Ð°ÑĢ": 880,
      "Ð¾Ð»Ð¾Ñģ": 881,
      "ĠÐĴÐ°Ñģ": 882,
      "ĠÐĴÐ°ÑĪÐ¸": 883,
      "ĠÐ²ÑĭÑģÑĤÑĢÐµÐ»Ð¸": 884,
      "Ð³Ð»": 885,
      "ĠÐ¾ÑĤÐ¿": 886,
      "Ð½ÑĥÐ²": 887,
      "ĠÐµÐ²": 888,
      "ĠÐ¾Ð½Ð°": 889,
      "ĠÑĤÐ¾Ð»ÐºÐ½ÑĥÐ»": 890,
      "ÑĭÐ²Ð°Ñı": 891,
      "ĠÑįÑĤ": 892,
      "Ð»ÐµÑĨ": 893,
      "ĠÐ±ÑĭÐ»Ð°": 894,
      "ĠÐĺÑģÐ°ÐµÐ²": 895,
      "Ð¸ÑĩÐµÐ³Ð¾": 896,
      "ĠÐ¿ÑĢÐ¸ÑħÐ¾Ð¶": 897,
      "ĠÐ¾ÐºÐ½Ð°": 898,
      "ĠÑĤÑĢÐµÑĤÑĮ": 899,
      "ĠÑĤÑĢÐ°Ð¼Ð²Ð°Ð¹": 900,
      "ÐµÐ¶Ð°Ð»": 901,
      "ĠÑģÐ²Ð¾ÐµÐ¹": 902,
      "ÐĿÐ°": 903,
      "ĠÐ¿Ð¾Ð»Ð¾Ð¶": 904,
      "Ð»Ð°Ñĩ": 905,
      "Ð½Ð¾Ð¼Ñĥ": 906,
      "ÐµÑħÐ°Ð»": 907,
      "ĠÐºÑĢÐ¸Ðº": 908,
      "ÑģÑĤÑĮÑİ": 909,
      "Ð¨ÑĤÐ¸pÐ»Ð¸ÑĨ": 910,
      "ĠÐ¿ÑĢÐ¾ÑĦÐµÑģ": 911,
      "ĠÑıÐ²ÐºÐ°": 912,
      "ĠÐ¾Ð´Ð¸Ð½": 913,
      "ĠÐ½Ð°Ð´Ð¾": 914,
      "ĠÐ·Ð°Ð¼Ðµ": 915,
      "!!!": 916,
      "Ġ10": 917,
      "ÑĭÑĪÐ°Ð»": 918,
      "ĠÐºÐ¾ÑĤÐ¾ÑĢ": 919,
      "ĠÐ´Ð²Ð°": 920,
      "ĠÐ³Ð¾Ð»Ð¾Ð²Ðµ": 921,
      "ĠÐ³Ð¾Ð»Ð¾Ð²Ñĥ": 922,
      "ĠÐ±ÑĢÐ°Ð»Ð¸": 923,
      "ĠÐ»ÑİÐ±Ð¸Ð»": 924,
      "Ð¯Ð²ÐºÐ°": 925,
      "Ð¸ÑĤÐµÐ»ÑĮÐ½Ð¾": 926,
      "ĠÑĪÑĤÐ¾Ð¿": 927,
      "ĠÐ³Ð»Ð°Ð·Ð°": 928,
      "ĠÐ´Ð¾ÐºÑĥÐ¼ÐµÐ½ÑĤÑĭ": 929,
      "ĠÐ²ÑģÑĤÑĢÐµÑĩÑĥ": 930,
      "ĠÑĥÑģÐ»ÑĭÑĪÐ°Ð»": 931,
      "ĠÐ¿Ð¾ÑĩÐµÐ¼Ñĥ": 932,
      "ĠÐ³ÑĢÑĥÐ¿Ð¿": 933,
      "ĠÐĵÐ¸ÑĤÐ»ÐµÑĢÐ°": 934,
      "ĠÑĪÐ¸ÑĦÑĢÐ¾Ð²": 935,
      "ĠÑĥÐ´Ð¸Ð²Ð»ÐµÐ½": 936,
      "ĠÑĤÑĥÐ°Ð»ÐµÑĤ": 937,
      "ÐµÐ½ÑĦÑİÑĢÐµÑĢ": 938,
      "ĠÐ·Ð´ÐµÑģÑĮ": 939,
      "ĠÐ¿ÑĢÐ¾Ð²Ð°Ð»ÐµÐ½Ð°": 940,
      "ĠÐ³Ð¾Ð²Ð¾ÑĢÐ¸ÑĤ": 941,
      "ĠÐľÐ¾ÑģÐºÐ²Ñĥ": 942,
      "Ð¸Ð°Ð½Ð¸ÑģÑĤÐºÐ°": 943,
      "ĠÐºÐ¸ÑĢÐ¿Ð¸Ñĩ": 944,
      "ĠÑĩÑĤÐ¾Ð±Ñĭ": 945,
      "ĠÐ³Ð°ÑĢÐ¼Ð¾ÑĪ": 946,
      "ĠÐ¿ÑĢÐ¸ÑħÐ¾Ð¶Ð°Ð½": 947,
      "ĠÐ¿ÑĢÐ¾ÑĦÐµÑģÑģ": 948,
      ".Â»": 949,
      "Ð§": 950,
      "Ðľ": 951,
      "Ġ3": 952,
      "Ġ8": 953,
      "ĠÐ¥": 954,
      "ĠÐĸ": 955,
      "Ð¾Ð»Ð¸": 956,
      "Ð¾ÑģÑĤ": 957,
      "Ð°ÑģÑĤ": 958,
      "ÐµÑģÑı": 959,
      "Ð»ÐµÐ´": 960,
      "ÑĤÑģÑı": 961,
      "ÑĢÐ¾Ð´": 962,
      "ÑĢÐ¾Ð¼": 963,
      "ÑģÐ¾Ð²": 964,
      "ÑģÐºÐ¸": 965,
      "Ð½Ð¸ÑĤ": 966,
      "Ð½Ð°ÑĢ": 967,
      "Ð½Ð°Ñı": 968,
      "Ð½ÐµÐ¼Ñĥ": 969,
      "ÑĥÐµÑĤÑģÑı": 970,
      "Ð²Ð¾": 971,
      "Ð²Ñĭ": 972,
      "Ð²ÐµÐ¹": 973,
      "Ð»Ð¸Ñĩ": 974,
      "ĠÐ¿Ð»Ðµ": 975,
      "ĠÐ¿ÑıÑĤÑĮ": 976,
      "ĠÐ¿ÑĮÑı": 977,
      "ĠÐ¿Ð»Ð¾Ñħ": 978,
      "ĠÐ¿Ð¸Ð°Ð½Ð¸ÑģÑĤÐºÐ°": 979,
      "ÑĨÐµ": 980,
      "ÑĨÑĥ": 981,
      "ÑĨÐ°ÑĢÐ¸": 982,
      "ÑıÐ´Ð¾Ð¼": 983,
      "ÑıÑģÐ½": 984,
      "ĠÑģÑĥÐ±": 985,
      "ĠÑģÑĥÐº": 986,
      "ĠÑģÐ¸Ð»ÑĮ": 987,
      "ĠÑģÐ´ÐµÐ»": 988,
      "ĠÐ²ÐµÑĢ": 989,
      "ĠÐ²ÑĩÐµÑĢ": 990,
      "ÑĭÑĤ": 991,
      "ÑĭÑħ": 992,
      "ÑĭÐ¶": 993,
      "¨ÑĤÐ¸ÑĢÐ»ÐµÑĨ": 994,
      "Ð´Ð°Ð»ÑģÑı": 995,
      "ĠÐ½ÐµÐ·": 996,
      "ĠÐ½Ð¾Ñĩ": 997,
      "ÐµÑĢÑĤ": 998,
      "ÐµÑĢÑĥ": 999,
      "ÐµÑĢÐº": 1000,
      "ÐµÑĢÑĮ": 1001,
      "ÐµÑĢÐµÐ³": 1002,
      "ÑĪÐ»Ð°": 1003,
      "ĠÐ¸Ð¼": 1004,
      "ĠÐ¸Ð´": 1005,
      "ĠÐ¸Ñħ": 1006,
      "ĠÐ¸Ð³ÑĢ": 1007,
      "ĠÐ¾ÑĦÐ¸": 1008,
      "ĠÐºÐ°": 1009,
      "ĠÐºÐ°Ð´": 1010,
      "ĠÐºÐ¾Ð¿": 1011,
      "ÐµÐ»Ð¾": 1012,
      "ĠÐ´Ð¾Ð»": 1013,
      "ĠÐ´ÑĥÑĢ": 1014,
      "ĠÐ´Ð°Ð»Ð°": 1015,
      "ĠÐ´ÐµÑĢÐµÐ²": 1016,
      "ÑħÐ°Ð»": 1017,
      "ĠÑĥÐ·": 1018,
      "Ð¾Ð¼Ñĥ": 1019,
      "ÐµÐ½ÑĤÑĢÐ°": 1020,
      "ÐµÐ½Ð±ÐµÑĢÐ³": 1021,
      "Ð¾Ð²Ð¸Ñĩ": 1022,
      "ĠÐ·Ð°Ð½": 1023,
      "ĠÐ·Ð°Ð²": 1024,
      "ÑģÑĤÐ°Ð»": 1025,
      "ĠÑĢÐ°Ð±Ð¾ÑĤ": 1026,
      "ĠÐ±ÑĥÐ¼": 1027,
      "ĠÐ±ÑĥÑĤ": 1028,
      "ĠÐ±ÐµÑĢÐµÐ³": 1029,
      "Ð°Ð½Ð¾": 1030,
      "Ð°Ð½Ð´": 1031,
      "ĠÐ¿Ð¾ÑĪÐµÐ»": 1032,
      "ĠÐ¿Ð¾ÑĤÑĢ": 1033,
      "ĠÐ¿Ð¾Ð»ÑĮ": 1034,
      "Ð¸Ð»Ð°ÑģÑĮ": 1035,
      "ĠÐ¼Ð½Ð¾Ð¹": 1036,
      "Ð°Ð·Ð´": 1037,
      "Ð°Ð·ÑĭÐ²Ð°ÐµÑĤ": 1038,
      "ĠÑĤÐ¾Ð¶": 1039,
      "Ð·Ð°": 1040,
      "Ð±Ñĥ": 1041,
      "Ð±Ð°Ñģ": 1042,
      "Ð±Ð¾ÑĤ": 1043,
      "ĠÐ¿ÑĢÐ¾Ð´": 1044,
      "ĠÐ¿ÑĢÐ¾Ð²": 1045,
      "ĠÐ¿ÑĢÐ¾Ñģ": 1046,
      "ĠÐ¿ÑĢÐ¸Ðº": 1047,
      "ĠÐ¿ÑĢÐ¾Ð±": 1048,
      "Ð¾ÑģÑģ": 1049,
      "ĠÐ¿Ð¾Ð´Ð½ÑıÐ»": 1050,
      "Ð°ÐºÐ¾Ð¼": 1051,
      "Ð°ÐºÑĤÐµÑĢ": 1052,
      "ĠÑĩÐ°Ñģ": 1053,
      "ĠÑĩÐ¸Ñģ": 1054,
      "ĠÑĩÐ¸ÑĤÐ°Ð»": 1055,
      "Ð¾ÑĢÐ¾Ðº": 1056,
      "Ð¸Ð½Ð°": 1057,
      "Ð°ÑĤÐ°": 1058,
      "Ð°ÑĤÐµÐ»ÑĮ": 1059,
      "Ð°Ð¼Ð¿": 1060,
      "Ð¾Ð½Ñĩ": 1061,
      "Ð¾Ð½ÐµÑģ": 1062,
      "Ð¾Ð»Ð¾Ð´": 1063,
      "Ð°ÑĢÐ°ÐºÑĤÐµÑĢ": 1064,
      "ĠÐľÑİÐ»Ð»ÐµÑĢÑĥ": 1065,
      "ÐµÐ¹Ñħ": 1066,
      "ĠÐ»ÐµÐ²": 1067,
      "Ð¾ÑĤÐ¾Ð³": 1068,
      "ĠÐµÐ»Ð¸": 1069,
      "ÐµÑģÐºÐ¸": 1070,
      "ĠÐ¡Ð¾": 1071,
      "ĠÐ¡Ð°Ð¼": 1072,
      "ĠÐĿÐµÑĤ": 1073,
      "ÑĪÐ¸Ð¹": 1074,
      "âĢ¦Â»": 1075,
      "Ð°ÑĤÑĮÑģÑı": 1076,
      "ĠÑģÐ²Ð¾Ð¹": 1077,
      "ĠÑģÐ²Ð¸ÑģÑĤ": 1078,
      "ĠÑģÐ²ÑıÐ·": 1079,
      "ÐµÐ·Ð´": 1080,
      "ĠÑĤÐ¾ÑĤ": 1081,
      "ĠÐļÐ°Ðº": 1082,
      "Ð¾ÑĩÐºÑĥ": 1083,
      "ĠÑįÑĤÐ¾Ð¼": 1084,
      "ĠÐ°Ð½": 1085,
      "ĠÑģÐ¿Ð¸Ñģ": 1086,
      "ĠÐ¾Ð±Ð½Ð°ÑĢ": 1087,
      "ĠÑģÐ»Ð¾Ð²": 1088,
      "ĠÑģÐ»ÑĥÑĩ": 1089,
      "ĠÑģÐ»ÑĥÐ¶": 1090,
      "ĠÑģÐ»ÐµÐ¿": 1091,
      "ĠÑĪÐµ": 1092,
      "ĠÑĪÐ°Ð³": 1093,
      "ĠÐ¨ÑĤÐ¸pÐ»Ð¸ÑĨ": 1094,
      "ĠÐ²ÑģÑİ": 1095,
      "ĠÐ²ÑģÐ¿": 1096,
      "ĠÐłÐ¾Ð»ÑĮ": 1097,
      "Ð¸ÑģÑĤÐ¸": 1098,
      "Ð¸ÑĤÑĮÑģÑı": 1099,
      "ĠÑĦÐ°ÑĪÐ¸": 1100,
      "ĠÐºÐ°ÐºÐ¸Ð¼": 1101,
      "ĠÐŀÐ±": 1102,
      "Ð°Ð¶ÐµÑĤ": 1103,
      "ĠÑħÐ¾ÑĤ": 1104,
      "ĠÐ¾ÑĤÐºÑĢÑĭÐ²Ð°ÐµÑĤÑģÑı": 1105,
      "ĠÐ¿Ð¾Ð¿Ð°Ð»Ð¸ÑģÑĮ": 1106,
      "ÐµÑĪÑĮ": 1107,
      "ĠÑģÑĤÐ°Ðº": 1108,
      "ĠÐ¾ÐºÐ½Ð¾": 1109,
      "ĠÐ¾ÐºÑĢÑĥÐ¶": 1110,
      "ĠÑĤÑĢÐ¸": 1111,
      "ĠÑįÑĤÐ¾ÑĤ": 1112,
      "ĠÐ¼Ð°ÑĪÐ¸Ð½Ðµ": 1113,
      "ĠÑģÑĤÐ¾ÑıÐ»": 1114,
      "ĠÐ¿Ð¾ÑģÐ»Ðµ": 1115,
      "ĠÐ¿Ð¾ÑģÐ¼Ð¾ÑĤÑĢ": 1116,
      "ĠÑģÐ²Ð¾Ñİ": 1117,
      "ĠÑģÐ²Ð¾ÐµÐ¼": 1118,
      "ĠÐ¿ÐµÑĢÐµÐ´": 1119,
      "ĠÐ¢Ð°Ðº": 1120,
      "Ð½ÐµÐµ": 1121,
      "ĠÐ¿Ð°ÑģÑĤÐ¾ÑĢÐ°": 1122,
      "ÑĢÐ¾ÑĤÐ¸Ð²": 1123,
      "ÑĥÐ¶Ð¸Ð»": 1124,
      "ÑĨÐ¸Ð¸": 1125,
      "ÑĨÐ¸Ñİ": 1126,
      "ĠÑģÐµÐ±Ðµ": 1127,
      "ĠÐºÑĢÐ¾Ð¼": 1128,
      "ĠÐ½ÐµÐ¼ÐµÑĨ": 1129,
      "ĠÐ½ÐµÐ¼ÑĨÑĭ": 1130,
      "ÐĹÐ²Ð¾Ð½": 1131,
      "ĠÑĢÐ°ÑģÐº": 1132,
      "ĠÐ³ÑĢÐ°Ð¼Ð¼": 1133,
      "ĠÐ¨Ð»Ð°Ð³Ð°": 1134,
      "ÐºÐ½ÑĥÐ»ÑģÑı": 1135,
      "ĠÑģÐ¾Ð±Ð¾Ð¹": 1136,
      "ĠÑģÐ¸Ð´Ð¸ÑĤ": 1137,
      "ĠÐ±ÑĥÐ´ÐµÑĤ": 1138,
      "ĠÐķÑģÐ»Ð¸": 1139,
      "Ð¾Ð²Ð°ÑĤÑĮÑģÑı": 1140,
      "ĠÐ·Ð°Ð´ÑĥÐ¼Ð°Ð»": 1141,
      "ĠÐ³Ð°Ð·ÐµÑĤÑĥ": 1142,
      "ĠÑģÐµÐºÑĢÐµÑĤÐ½ÑĭÐµ": 1143,
      "ĠÐ°Ð²ÑĤÐ¾Ð¼": 1144,
      "ĠÑĤÑĢÑĥÑģÑĭ": 1145,
      "ĠÐ¿Ð»Ð°Ðº": 1146,
      "ĠÐ¸ÑģÐ¿Ð¾Ð²ÐµÐ´": 1147,
      "ĠÐºÐ¾Ð»Ð±Ð°Ñģ": 1148,
      "ĠÐ±Ð¾Ð»ÑĮÑĪÐµ": 1149,
      "ĠÐ½Ð°ÑĩÐ¸Ð½": 1150,
      "ĠÐ¾Ð±ÑĬÑıÐ²": 1151,
      "ĠÑģÐ»ÐµÐ´ÑĥÑİÑīÐ¸Ð¹": 1152,
      "ĠÐ¿Ð¾Ð·Ð²Ð¾Ð½Ð¸Ð»": 1153,
      "ĠÐºÐ²Ð°ÑĢÑĤÐ¸ÑĢÑĥ": 1154,
      "ĠÐ½Ð¸ÐºÐ¾Ð³Ð´Ð°": 1155,
      "ĠÐ´Ð²ÐµÑĢÐ¸": 1156,
      "ĠÑĢÐµÑĪÐ¸Ð»": 1157,
      "ĠÐ½Ð°ÑĤÐºÐ½ÑĥÐ»ÑģÑı": 1158,
      "ĠÐ¼Ð¸Ð½ÑĥÑĤ": 1159,
      "ĠÐ²ÑĭÑģÑĤÑĢÐµÐ»Ð¸Ð»": 1160,
      "Ð½ÑĥÐ²ÑĪÐ¸ÑģÑĮ": 1161,
      "ĠÑįÑĤÐ°Ð¶": 1162,
      "ĠÐ·Ð°Ð¼ÐµÑĤÐ¸Ð»": 1163,
      "ĠÑĪÑĤÐ¾Ð¿Ð¾ÑĢ": 1164,
      "Ð²ÐµÐ¹ÑĨÐ°ÑĢÐ¸": 1165,
      "ĠÐ¿Ð»ÐµÑĩ": 1166,
      "ĠÑģÑĥÐ±Ð±Ð¾ÑĤ": 1167,
      "ĠÐ½ÐµÐ·Ð°Ð¼": 1168,
      "ĠÐºÐ°Ð´ÑĢÐ¾Ð¼": 1169,
      "ĠÑĥÐ·Ð½Ð°Ð»": 1170,
      "ĠÐ±ÑĥÐ¼Ð°Ð³": 1171,
      "ĠÐ±ÑĥÑĤÑĭÐ»": 1172,
      "ĠÑĤÐ¾Ð¶Ðµ": 1173,
      "Ð¾ÑĤÐ¾Ð³ÑĢÐ°": 1174,
      "ĠÐ¾Ð±Ð½Ð°ÑĢÑĥÐ¶Ð¸Ð»": 1175,
      "ĠÐłÐ¾Ð»ÑĮÑĦ": 1176,
      "ĠÑĦÐ°ÑĪÐ¸ÑģÑĤ": 1177,
      "ÐĹÐ²Ð¾Ð½Ð¾Ðº": 1178,
      "ĠÑģÑĥÐ±Ð±Ð¾ÑĤÐ½Ð¸Ðº": 1179,
      "!Â».": 1180,
      "45": 1181,
      "?!": 1182,
      "ÐŃ": 1183,
      "Ġ2": 1184,
      "ĠÐĽ": 1185,
      "Ð¾Ð¸": 1186,
      "Ð¾Ñı": 1187,
      "Ð¾Ñħ": 1188,
      "Ð¾ÑģÑĤÑĮÑİ": 1189,
      "Ð¸Ð¸": 1190,
      "Ð¸Ñı": 1191,
      "Ð¸Ñİ": 1192,
      "Ð»Ð°Ñģ": 1193,
      "Ð»Ð¾Ð½": 1194,
      "Ð»ÐµÐ½Ð¸": 1195,
      "Ð»Ð¾ÑģÑĮ": 1196,
      "ÑĤÑĭ": 1197,
      "ÑĢÐµÐ¹": 1198,
      "ÑĢÐ¾Ð³": 1199,
      "ÑĢÑĭÐ²": 1200,
      "ÑĢÐ°Ð¼Ð¼": 1201,
      "ÑģÑį": 1202,
      "ÑģÐºÐ°Ñı": 1203,
      "Ð½Ð¸Ñĩ": 1204,
      "Ð½Ð¾ÑģÑĤÐ¸": 1205,
      "ÑĥÐ½": 1206,
      "ÑĥÐ·": 1207,
      "ÑĥÑĦ": 1208,
      "ÑĥÐ»Ñı": 1209,
      "ÐºÐ¾Ð»ÑĮÐºÐ¾": 1210,
      "Ð²Ð°Ð»": 1211,
      "Ð²Ð¾Ð´": 1212,
      "Ð²Ð¾Ð·": 1213,
      "ĠÐ¿ÑıÑĤ": 1214,
      "ÑĨÐµÐ»Ñı": 1215,
      "ÑĤÐ¸Ð¹": 1216,
      "ĠÑģÐ¼": 1217,
      "ĠÑģÐ¾Ð»": 1218,
      "ĠÑģÐ¾ÑĤ": 1219,
      "ĠÑģÐ¾Ð¿": 1220,
      "ĠÑģÐµÐº": 1221,
      "ĠÑģÐ»Ð¸Ð²": 1222,
      "ĠÑģÐ¼Ð¾ÑĤÑĢ": 1223,
      "ĠÐ²Ð°Ð»": 1224,
      "ĠÐ²Ð¾Ð¹": 1225,
      "ĠÐ²Ð¾Ð»": 1226,
      "ĠÐ²ÑĤÐ¾ÑĢ": 1227,
      "ĠÐ²ÐµÑĩ": 1228,
      "ÑĭÐº": 1229,
      "ÑĭÑĪÐ¸": 1230,
      "ÑĮÑİ": 1231,
      "Ð¼Ð¾": 1232,
      "Ð¼Ð»ÐµÑĢ": 1233,
      "Ð¼Ð¾Ð¶": 1234,
      "Ð¼Ð°Ñħ": 1235,
      "ÑĩÐ¸": 1236,
      "ÑĩÐ°ÐµÑĤ": 1237,
      "ÑĩÐµÐ¼": 1238,
      "Ð´Ñĥ": 1239,
      "Ð´Ð¸ÑĤÐµ": 1240,
      "Ð´ÑĥÑħ": 1241,
      "ĠÐ½ÐµÑĤ": 1242,
      "ĠÐ½ÐµÐ½": 1243,
      "ĠÐ½Ð°Ð·": 1244,
      "ĠÐ½Ð¾Ñģ": 1245,
      "ĠÐ½Ð¾ÑĢ": 1246,
      "ĠÐ½Ð°Ð³": 1247,
      "ĠÐ½Ð¸ÑĩÐµÐ³Ð¾": 1248,
      "Ð°Ð»Ñĥ": 1249,
      "ÐµÑĢÐ°": 1250,
      "ÐµÑĢÑģ": 1251,
      "ÑĪÐµÐ³Ð¾": 1252,
      "ĠÐ¸Ñģ": 1253,
      "ĠÐ¸Ð½": 1254,
      "ĠÐ¾Ñĩ": 1255,
      "ĠÐ¾ÐºÑĥ": 1256,
      "ÑĤÐ¾ÑĦ": 1257,
      "ĠÐºÐ¾Ð¼": 1258,
      "ĠÐºÐ°Ð¼": 1259,
      "ĠÐºÐ°Ð¶": 1260,
      "ĠÐºÐ¾ÑĪ": 1261,
      "ĠÐºÐ¾Ð³Ð´Ð°": 1262,
      "ÐµÐ»Ð°": 1263,
      "ÐµÐ»Ð¾ÑģÑĮ": 1264,
      "ÐµÐ»ÑıÑĤÑĮ": 1265,
      "ĠÐ´Ð¾Ñģ": 1266,
      "ĠÐ´Ð¾ÑĢ": 1267,
      "ĠÐ´Ð¾Ð¶": 1268,
      "ĠÐ´ÑĢÑĥÐ³": 1269,
      "ĠÐ´ÐµÑĢÐ³": 1270,
      "ÑħÐ¾ÑĤ": 1271,
      "ĠÑĥÐµÑħ": 1272,
      "ĠÑĥÑĢÐ¾Ð´": 1273,
      "ĠÑĥÐ½Ð¸ÑĤ": 1274,
      "ÐµÐ½Ñĥ": 1275,
      "ÐµÐ½Ð½Ð¾Ð¹": 1276,
      "ÐµÐ½ÑĤÐ¾Ð¼": 1277,
      "ÐµÐ½Ð¸Ð¼Ð¾": 1278,
      "ÐµÐ½Ð½ÑĭÐ¼": 1279,
      "ÐµÐ½Ð½ÐµÐ¼Ñĥ": 1280,
      "Ð¾Ð²Ð¸Ð»": 1281,
      "Ð¾Ð²Ð½Ð¾": 1282,
      "Ð¾Ð²Ð°Ð»ÑģÑı": 1283,
      "Ð¾Ð²Ð¸ÑĤÐµ": 1284,
      "Ð¾Ð²Ð°ÑĢÐ¸": 1285,
      "ĠÐ·Ð²": 1286,
      "Ð¿ÐµÐ½Ð¸Ðµ": 1287,
      "ÑģÑĤÐ½Ð¾": 1288,
      "ĠÑĢÐµÑģ": 1289,
      "ĠÑĢÐµÐ·": 1290,
      "ĠÑĢÑĥÑģ": 1291,
      "ĠÑĢÑĥÐº": 1292,
      "ĠÑĢÑıÐ´Ð¾Ð¼": 1293,
      "ĠÑĢÐµÐ¹Ñħ": 1294,
      "ĠÐ±Ð¾": 1295,
      "ĠÐ±Ð°Ð»": 1296,
      "Ð°Ð½Ð°": 1297,
      "Ð°Ð½ÑĤÐ°": 1298,
      "ĠÐ¿Ð¾Ð½": 1299,
      "ĠÐ¿Ð¾ÑıÐ²": 1300,
      "ĠÐ¿Ð¾ÑģÑĤÐ°Ð²": 1301,
      "ĠÐ¼Ñĩ": 1302,
      "ĠÐ¼ÐµÑĤ": 1303,
      "ĠÐ¼Ð¾ÑĢ": 1304,
      "ĠÐ¼Ð¾Ð»": 1305,
      "ĠÐ¼ÑĥÑģ": 1306,
      "ĠÐ¼ÐµÑģÑĤ": 1307,
      "ĠÐ¼ÐµÑģÑı": 1308,
      "Ð°Ð·Ð²ÐµÐ´": 1309,
      "Ð°Ð·Ð¾Ð²Ð¸ÑĤÐµ": 1310,
      "ĠÑĤÑĢÐµ": 1311,
      "ĠÑĤÑĥÑĤ": 1312,
      "ĠÑĤÐµÑħ": 1313,
      "ĠÑĤÐ¾Ð²Ð°ÑĢÐ¸": 1314,
      "Ð±ÑĥÐ´": 1315,
      "ĠÐ½ÐµÐ¼Ñĥ": 1316,
      "ĠÐ¿ÑĢÐ¸Ð½": 1317,
      "ĠÐ¿ÑĢÐ°Ð²": 1318,
      "ĠÐ¿ÑĢÐ¸Ð²": 1319,
      "ĠÐ¿ÑĢÐ¸Ñģ": 1320,
      "ĠÐ¿ÑĢÐ¾Ð³Ñĥ": 1321,
      "ĠÐ¿ÑĢÐ°Ð·Ð´": 1322,
      "Ð¾ÑģÐ¸Ð»": 1323,
      "Ð¾ÑģÐ»Ðµ": 1324,
      "ÑĦÐ¸ÑĢ": 1325,
      "ÑĦÐ°Ð½ÑĤ": 1326,
      "ľÑİÐ»Ð»Ðµ": 1327,
      "ĠÐ¿Ð¾Ð´ÑħÐ¾Ð´Ð¸ÑĤ": 1328,
      "Ð¸Ð´Ð°Ð½Ð½Ð¾": 1329,
      "Ð°Ð¼Ð¸Ð»Ð¸": 1330,
      "ĠÐ³ÑĢÐµÑħ": 1331,
      "Ð¾Ð»ÑĤÐ¾ÑĦ": 1332,
      "Ð°ÑĢÐ¸Ð»": 1333,
      "ĠÐ²ÑĭÐ±": 1334,
      "ĠÐ²ÑĭÐºÐ»ÑİÑĩ": 1335,
      "ÐµÐ´Ð½ÑĭÐ¹": 1336,
      "Ð°Ð²Ð°Ð»": 1337,
      "Ð½ÑĥÑĤÑĮ": 1338,
      "ĠÐ»ÑĭÐ¶": 1339,
      "Ð¾ÑĤÐ¾Ð¼": 1340,
      "ĠÐµÐµ": 1341,
      "ĠÐµÑħÐ°Ð»": 1342,
      "Ð¶Ð°Ñı": 1343,
      "ÐµÑģÑĤÐ¾": 1344,
      "ÐµÑģÐºÐ¸Ð¹": 1345,
      "ĠÐŁÑĢ": 1346,
      "ĠÐŁÐ¾Ð»": 1347,
      "ĠÐŁÐ¾Ñĩ": 1348,
      "ĠÐŁÐ¾ÑĤÐ¾Ð¼": 1349,
      "ÐºÐ°Ñħ": 1350,
      "Ð°Ð»Ð¸Ð»": 1351,
      "ĠÐ·Ð°ÑģÑĤ": 1352,
      "ĠÐ·Ð°ÑħÐ¾Ð´Ð¸ÑĤ": 1353,
      "ÐµÐ²Ð°Ð»": 1354,
      "ĠÑĢÐ°Ð·Ð¾Ð±": 1355,
      "ĠÐ¡Ð²": 1356,
      "ĠÐĿÐ°Ð·Ð¾Ð²Ð¸ÑĤÐµ": 1357,
      "ÑĪÐ¸Ð²": 1358,
      "Ð¾Ð¶Ð¸Ð´Ð°Ð½Ð½Ð¾": 1359,
      "Ð½ÑĭÑħ": 1360,
      "ÐµÐ·Ð¶Ð°Ñı": 1361,
      "ĠÑĤÐ¾Ð½ÐºÐ¸": 1362,
      "ĠÐļÑĢÐ°Ñģ": 1363,
      "ÑĭÐ²Ð°Ð½Ð¸Ñı": 1364,
      "Ð¾ÑĩÑĮ": 1365,
      "Ð¾ÑĩÐ½Ð¾Ð¹": 1366,
      "ĠÑįÑĤÐ¸": 1367,
      "ĠÑįÑģÑį": 1368,
      "Ð¸Ð¼Ð¼Ð»ÐµÑĢ": 1369,
      "ĠÐ¸Ð·Ð²Ðµ": 1370,
      "ĠÐ°Ð½Ð°Ð»": 1371,
      "ĠÐ¾Ð±ÑĢ": 1372,
      "Ð¸Ð²Ð°Ð»": 1373,
      "ÑĥÑģÐº": 1374,
      "ÑıÐ»Ð°": 1375,
      "ĠÑĥÐ²Ð¸Ð´": 1376,
      "Ð°Ð·Ð°Ð»Ð°": 1377,
      "ĠÐ¨Ð²ÐµÐ¹ÑĨÐ°ÑĢÐ¸": 1378,
      "Ð½ÑĥÐ»ÑģÑı": 1379,
      "ÐĴÐ¾": 1380,
      "ÐĴÐµÑĢ": 1381,
      "ÐŁÐ¾": 1382,
      "ÐŁÐ¾Ð¿": 1383,
      "ĠÐĶÐ¾Ð¼": 1384,
      "ĠÐłÑĥÑģÑģ": 1385,
      "ĠÐłÐ¾ÑģÑģ": 1386,
      "Ð°Ð¹ÐºÐµ": 1387,
      "ĠÑĦÐ¾ÑĤÐ¾Ð³ÑĢÐ°": 1388,
      "ĠÑĦÑĥÑĦ": 1389,
      "ĠÑĦÐ°Ð¼Ð¸Ð»Ð¸": 1390,
      "ĠÐĺÐ·": 1391,
      "ĠÐĺÐ²Ð°Ð½": 1392,
      "Ð¸ÑĩÐ°Ð»": 1393,
      "ĠÐºÐ°ÐºÐ¾Ð¹": 1394,
      "ĠÐŀÐ½Ð¸": 1395,
      "ĠÐŀÐ¿ÑıÑĤÑĮ": 1396,
      "Ð°Ð¶Ñĥ": 1397,
      "ĠÐĵÐµÑĢ": 1398,
      "ĠÐĵÐ´Ðµ": 1399,
      "ĠÐĵÐ¾Ð»Ð¾Ñģ": 1400,
      "ÑģÐºÐ¾Ð³Ð¾": 1401,
      "ÑĥÑİÑīÐµ": 1402,
      "ĠÐ±ÑĭÐ»Ð¸": 1403,
      "ĠÐ±ÑĭÑĤÑĮ": 1404,
      "ĠÐºÐ°Ð±Ð¸Ð½ÐµÑĤÐ°": 1405,
      "ĠÑħÑĢ": 1406,
      "ĠÑħÐ¾Ð»Ð¾Ð´": 1407,
      "ĠÐ¿Ð¾Ð¿ÑĢÐ¾ÑģÐ¸Ð»": 1408,
      "Ð½Ð¸Ð±ÑĥÐ´": 1409,
      "ĠÑģÑĤÐ°Ð»": 1410,
      "ĠÑģÑĤÐ°ÑĢ": 1411,
      "ĠÑģÑĤÐ°ÑĤÑĮ": 1412,
      "ĠÐºÐ¾Ð½Ñĩ": 1413,
      "ĠÐºÐ¾Ð½ÐµÑĩ": 1414,
      "ĠÐºÐ¾Ð½ÐµÑĨ": 1415,
      "ĠÐ¾ÑĤÐ²ÐµÑĩÐ°ÐµÑĤ": 1416,
      "ĠÐ¼Ð°ÑĪÐ¸Ð½Ñĭ": 1417,
      "ĠÐ¿Ð¾ÑģÐ»ÐµÐ´": 1418,
      "ĠÐ²ÑģÐµÑħ": 1419,
      "ÐĿÐµ": 1420,
      "ĠÐ¿ÐµÑĢÐµÐ±": 1421,
      "ĠÑģÐµÐ¹ÑĩÐ°Ñģ": 1422,
      "ĠÑĥÐ¿Ð°Ð»Ð°": 1423,
      "ÑģÑĤÐ²Ð¾": 1424,
      "Ð½Ð¸ÐºÐ°": 1425,
      "ÑĨÐ¸Ñı": 1426,
      "ĠÐ²Ð·Ð³Ð»Ñı": 1427,
      "ĠÐ·Ð°ÐºÑĢ": 1428,
      "ĠÐ·Ð°ÐºÐ¾Ð½Ñĩ": 1429,
      "ĠÐ³Ð¾Ð»ÑĥÐ±": 1430,
      "ÐĵÐ¸Ð¼Ð¼Ð»ÐµÑĢ": 1431,
      "ÐļÑįÑĤ": 1432,
      "ĠÑĢÑĥÑģÑģÐºÐ°Ñı": 1433,
      "ĠÐ²Ð¾Ð·Ð´ÑĥÑħ": 1434,
      "ÐµÐ¿ÐµÑĢÑĮ": 1435,
      "ĠÑĢÐ°ÑģÐ¿": 1436,
      "ĠÐ³ÑĢÐ¾Ð¼": 1437,
      "ĠÑģÐ¾Ð±Ð°Ñĩ": 1438,
      "ĠÐ´ÐµÐ»Ð¾": 1439,
      "ĠÑĥÐ´Ð°ÑĢÐ¸Ð»": 1440,
      "ĠÐ·Ð°Ð¼ÐµÑĩ": 1441,
      "ĠÐ³Ð¾ÑĢÐ¼Ð¾ÑĪ": 1442,
      "ĠÐ³Ð¾ÑĢÐ¾Ð´Ñĥ": 1443,
      "ĠÑģÐ¸Ð´ÑıÑĤ": 1444,
      "ĠÐºÐ¾ÑĦÐµ": 1445,
      "ĠÐ´Ð²ÑĥÐ·": 1446,
      "ĠÐ·Ð½Ð°ÐµÑĤÐµ": 1447,
      "ĠÐ³ÐµÑģÑĤÐ°Ð¿Ð¾Ð²": 1448,
      "ÑĢÐ°Ð²Ð´Ð°": 1449,
      "Ð²ÐµÑĤÐ°": 1450,
      "ĠÑĥÑĤÑĢÐ¾": 1451,
      "ĠÐ·Ð°Ð¿Ð¸Ñģ": 1452,
      "ĠÐĳÐµÑĢÐ»Ð¸Ð½Ð¾Ð¼": 1453,
      "ĠÐ¶ÐµÐ½Ðµ": 1454,
      "ĠÐ¶ÐµÐ½Ð¾Ð¹": 1455,
      "Ð¢Ð°Ðº": 1456,
      "ĠÐĹÐ°Ð¿": 1457,
      "ĠÐºÐ°ÑĢÐ¼Ð°Ð½": 1458,
      "ĠÐ±Ð°ÑĢÐ¼ÐµÐ½": 1459,
      "ĠÑĤÑĭÑģÑı": 1460,
      "Ð½Ð°ÑĩÐ½Ð¾Ðµ": 1461,
      "ĠÐŁÐ»ÐµÐ¹ÑĪÐ½ÐµÑĢÐ°": 1462,
      "ĠÐ¦ÐµÐ½ÑĤÑĢÐ°": 1463,
      "ĠÑģÐ¾Ð²ÐµÑĤÑģÐºÐ¸Ð¹": 1464,
      "ĠÐ·Ð°Ð±ÑĭÐ»": 1465,
      "ĠÐ¡ÑĤÐ°Ð»Ð¸Ð½": 1466,
      "ĠÐ²Ð°ÑĪÐ°": 1467,
      "ĠÐ¾ÑĩÐµÑĢÐµÐ´Ð½Ð¾Ð¹": 1468,
      "ĠÐ´Ð°Ð²Ð½Ð¾": 1469,
      "Ð°Ð½ÑĮÑĪÐµ": 1470,
      "ĠÑĢÐ°Ð·Ð±ÐµÐ¶": 1471,
      "ĠÐ¨ÐµÐ»Ð»ÐµÐ½": 1472,
      "ĠÐ¨ÐµÐ»ÐµÐ½Ð±ÐµÑĢÐ³": 1473,
      "ĠÐłÐ¾Ð´Ð¸Ð½Ðµ": 1474,
      "Ð»Ð°Ð´ÑĭÐ²Ð°Ð½Ð¸Ñı": 1475,
      "ĠÐ¿Ð¾Ð¼Ð¾Ð³": 1476,
      "ĠÐ²Ð¸Ð»Ð»Ðµ": 1477,
      "ĠÐºÑĥÑģÑĤ": 1478,
      "ĠÐºÐ°Ð½Ð°ÑĤ": 1479,
      "ĠÐ´ÐµÐ²Ð¾Ñĩ": 1480,
      "ĠÐ´ÐµÐ¹ÑģÑĤÐ²Ð¸ÑĤÐµÐ»ÑĮÐ½Ð¾": 1481,
      "ĠÑĥÐ»Ð¸ÑĨÐµ": 1482,
      "ĠÐ½Ð°ÑĥÑĩÐ¸Ð»ÑģÑı": 1483,
      "ĠÐ¼Ð¾Ð¶ÐµÑĤ": 1484,
      "ĠÑĤÐµÐ±Ðµ": 1485,
      "ĠÐµÐ²ÑĢÐµÐ¹": 1486,
      "ĠÑĤÑĢÐµÑĤÑĮÐµÐ³Ð¾": 1487,
      "ĠÐºÑĢÐ¸ÐºÐ½ÑĥÐ»": 1488,
      "Ġ100": 1489,
      "ĠÐ³ÑĢÑĥÐ¿Ð¿ÐµÐ½ÑĦÑİÑĢÐµÑĢ": 1490,
      "ÐľÐµÐ½Ñı": 1491,
      "ĠÐ¥Ð¾Ð»ÑĤÐ¾ÑĦ": 1492,
      "ÑģÐ¾Ð²ÑĨÑĭ": 1493,
      "ĠÐ¿ÑĮÑıÐ½ÐºÐ¸": 1494,
      "ĠÐ¿Ð»Ð¾ÑħÐ°Ñı": 1495,
      "ĠÑģÐ´ÐµÐ»Ð°Ð»": 1496,
      "ĠÐ²ÑĩÐµÑĢÐ°": 1497,
      "ĠÐºÐ°ÑĦÐµ": 1498,
      "ĠÐ´Ð¾Ð»Ð³Ð¾": 1499,
      "ĠÐ´ÑĥÑĢÐ°Ðº": 1500,
      "ĠÐ´ÐµÑĢÐµÐ²ÑĮÑı": 1501,
      "ĠÑĩÐ¸ÑģÐ»Ð¾": 1502,
      "ĠÐ»ÐµÐ²ÑĥÑİ": 1503,
      "ĠÑħÐ¾ÑĤÑĮ": 1504,
      "ĠÑģÑĤÐ°ÐºÐ°Ð½": 1505,
      "ĠÐºÑĢÐ¾Ð¼Ðµ": 1506,
      "ĠÐ·Ð°Ð´ÑĥÐ¼Ð°Ð»ÑģÑı": 1507,
      "ĠÐ¿Ð»Ð°ÐºÐ°ÑĤ": 1508,
      "ĠÐºÐ¾Ð»Ð±Ð°ÑģÑĥ": 1509,
      "ĠÐ½Ð°ÑĩÐ¸Ð½Ð°ÐµÑĤ": 1510,
      "ĠÐ¾Ð±ÑĬÑıÐ²Ð»ÐµÐ½Ð¸Ðµ": 1511,
      "ĠÐ¿Ð»ÐµÑĩÐ¾Ð¼": 1512,
      "ĠÐ½ÐµÐ·Ð°Ð¼ÐµÐ½Ð¸Ð¼Ð¾": 1513,
      "ĠÐ±ÑĥÑĤÑĭÐ»ÐºÑĥ": 1514,
      "ÑĨÐµÐ»ÑıÑĢÐ¸": 1515,
      "ĠÑģÐ¾Ð»Ð´": 1516,
      "ĠÑģÐ¾Ð¿ÑĢÐ¾ÑĤÐ¸Ð²": 1517,
      "ĠÑģÐµÐºÑģ": 1518,
      "ĠÐ²ÐµÑĩÐµÑĢ": 1519,
      "ĠÐ½Ð°Ð·Ð°Ð´": 1520,
      "ĠÑĥÐµÑħÐ°Ð»Ð¸": 1521,
      "ĠÑĥÐ½Ð¸ÑĤÐ°Ð·": 1522,
      "ĠÑĢÐµÑģÑĤÐ¾ÑĢ": 1523,
      "ĠÑĢÑĥÑģÑģÐºÐ¾Ð¹": 1524,
      "ĠÑĢÑĥÐºÐ°Ð¼Ð¸": 1525,
      "ĠÐ¼ÐµÑģÑıÑĨ": 1526,
      "ĠÑĤÑĢÐµÑĤÐ¸Ð¹": 1527,
      "ĠÑĤÐ¾Ð²Ð°ÑĢÐ¸Ñī": 1528,
      "ĠÐ¿ÑĢÐ¾Ð³ÑĥÐ»Ð¸Ð²": 1529,
      "ľÑİÐ»Ð»Ðµp": 1530,
      "ĠÑĤÐ¾Ð½ÐºÐ¸Ð¼": 1531,
      "ĠÐ¸Ð·Ð²ÐµÑģÑĤÐ½Ð¾": 1532,
      "ĠÐ°Ð½Ð°Ð»ÑĮ": 1533,
      "ĠÑĦÐ¾ÑĤÐ¾Ð³ÑĢÐ°ÑĦÐ¸ÑĢ": 1534,
      "ĠÐĺÐ²Ð°Ð½Ð¾Ð²Ð¸Ñĩ": 1535,
      "ĠÑħÐ¾Ð»Ð¾Ð´Ð½Ð¾Ðµ": 1536,
      "Ð½Ð¸Ð±ÑĥÐ´ÑĮ": 1537,
      "ĠÐºÐ¾Ð½ÐµÑĩÐ½Ð¾": 1538,
      "ĠÐ³Ð¾Ð»ÑĥÐ±ÑĭÐµ": 1539,
      "ĠÐ´Ð²ÑĥÐ·Ð½Ð°ÑĩÐ½Ð¾Ðµ": 1540,
      "ĠÐ½ÐµÐ·Ð°Ð¼ÐµÐ½Ð¸Ð¼Ð¾Ðµ": 1541,
      "94": 1542,
      "??": 1543,
      "Hi": 1544,
      "yÐ¼": 1545,
      "©ÑĤÐ¸ÑĢ": 1546,
      "«Ð¨": 1547,
      "ÐĽ": 1548,
      "Ð¨ÑĤÐ¸ÑĢÐ»ÐµÑĨ": 1549,
      "Ð«Ð¨": 1550,
      "Ġ5": 1551,
      "Ġ9": 1552,
      "ĠÑī": 1553,
      "Ġ45": 1554,
      "ĠÐ¤": 1555,
      "ĠÐ¨ÑĤÐ¸ÑĢÐ»ÐµÑĨ": 1556,
      "ĠÐľÑİÐ»Ð»Ðµp": 1557,
      "Ð¾ÑĦ": 1558,
      "Ð¾ÐµÑĤÑģÑı": 1559,
      "Ð¸Ð¾": 1560,
      "Ð¸Ð¿": 1561,
      "Ð¸Ð³": 1562,
      "Ð¸Ð¶": 1563,
      "Ðµp": 1564,
      "ÐµÑī": 1565,
      "Ð»ÐµÐ»": 1566,
      "Ð»Ð°Ð²": 1567,
      "Ð»Ð¾Ðº": 1568,
      "Ð»ÑıÑĤ": 1569,
      "Ð»ÑıÐ»ÑģÑı": 1570,
      "ÑĤÐ°Ð½": 1571,
      "ÑĤÐ¾Ð³": 1572,
      "ÑĢÐ´": 1573,
      "ÑĢÐ°Ð·": 1574,
      "ÑĢÐ¸Ð½": 1575,
      "ÑĢÐ¸Ð¼": 1576,
      "ÑĢÐµÐ·Ð´": 1577,
      "ÑģÐ½Ð¾": 1578,
      "ÑģÐ¸Ð¼": 1579,
      "Ð½Ñİ": 1580,
      "Ð½Ð°Ð´": 1581,
      "Ð½ÐµÐ¹": 1582,
      "Ð½Ð°Ð³": 1583,
      "Ð½ÐµÐ³Ð¾": 1584,
      "Ð½Ð°Ð¶": 1585,
      "Ð½Ð¸ÑĤÐµ": 1586,
      "Ð½Ð¸ÑģÑĤÐ¸": 1587,
      "Ð½ÐµÑĪÑĮ": 1588,
      "ÑĥÐ½ÑĥÐ»": 1589,
      "ÑĥÐ»ÑĮ": 1590,
      "ÑĥÐ»Ð¾": 1591,
      "ÐºÐ¾Ð²": 1592,
      "ÐºÑĤÑĢ": 1593,
      "ÐºÐ°Ð¼Ð¸": 1594,
      "ÐºÐµÑĤÐµ": 1595,
      "Ð²ÐºÑĥ": 1596,
      "Ð²Ð¾Ð³Ð¾": 1597,
      "Ð²ÑģÑĤÐ²": 1598,
      "Ð²Ð·Ð½": 1599,
      "Ð²Ð¸Ð½Ñĥ": 1600,
      "Ð»Ð¸ÑĪ": 1601,
      "Ð»Ð¸Ð·": 1602,
      "Ð»Ð¸ÑģÑĮ": 1603,
      "Ð»Ð¸ÐºÐ½ÑĥÐ»": 1604,
      "ĠÐ¿Ð°Ñģ": 1605,
      "ĠÐ¿Ð°ÑĤ": 1606,
      "ĠÐ¿Ð°Ð´": 1607,
      "ĠÐ¿Ð¾Ð³": 1608,
      "ĠÐ¿ÐµÑģ": 1609,
      "ĠÐ¿Ð¸Ñģ": 1610,
      "ĠÐ¿Ð¸Ð»Ð¸": 1611,
      "ĠÐ¿Ð¾Ð²Ð¾ÑĢ": 1612,
      "ĠÐ¿Ð¸ÑģÑĮ": 1613,
      "ĠÐ¿Ð»Ð°Ñĩ": 1614,
      "ÑĨÐµÑĢ": 1615,
      "ÑĨÐ°ÑĤÑĮ": 1616,
      "ÑıÐ»Ð¸": 1617,
      "ÑıÑĩ": 1618,
      "ÑıÐ³": 1619,
      "ÑıÑī": 1620,
      "ÑıÐ½Ð¸": 1621,
      "ÑĤÐ¸Ð»Ð¸": 1622,
      "ÑĤÐ¸Ð½ÐºÐ¸": 1623,
      "ĠÑģp": 1624,
      "ĠÑģÐ½": 1625,
      "ĠÑģÑĩ": 1626,
      "ĠÑģÐ¾Ð²": 1627,
      "ĠÑģÐºÑĥ": 1628,
      "ĠÑģÐ¾Ð³": 1629,
      "ĠÑģÐµÐ¼": 1630,
      "ĠÑģÐ²ÐµÑĢ": 1631,
      "ĠÑģÐ¾Ð·": 1632,
      "ĠÑģÐ°Ñħ": 1633,
      "ĠÑģÑĥÑħ": 1634,
      "ĠÑģÑĢÐµÐ´": 1635,
      "ĠÑģÐ¾ÑĢÐ¾Ðº": 1636,
      "ĠÑģÐ»Ð¸ÑĪ": 1637,
      "ĠÐ²Ð¾": 1638,
      "ĠÐ²ÐµÑĤ": 1639,
      "ĠÐ²Ð¿": 1640,
      "ĠÐ²ÑģÑı": 1641,
      "ĠÐ²Ð¾Ñģ": 1642,
      "ĠÐ²Ð¾ÑĢ": 1643,
      "ĠÐ²ÐµÐ´": 1644,
      "ĠÐ²Ð¾ÑĤ": 1645,
      "ĠÐ²Ð¾Ð¿": 1646,
      "ĠÐ²Ð°Ð¶": 1647,
      "ĠÐ²ÑħÐ¾Ð´Ð¸ÑĤ": 1648,
      "ĠÐ²Ð°Ð¼Ð¸": 1649,
      "ĠÐ²Ð¾ÑģÐº": 1650,
      "ĠÐ²ÐºÐ»ÑİÑĩ": 1651,
      "ĠÐ²ÐµÑĢÐµÐ²": 1652,
      "ĠÐ²Ð°Ð³Ð¾": 1653,
      "ĠÐ²ÑģÑĤÐ°Ð»": 1654,
      "ÑĭÑĩ": 1655,
      "ÑĭÐ³ÑĢ": 1656,
      "ÑĭÑĩÐ½Ð¾": 1657,
      "Ð¼Ð°": 1658,
      "Ð¼Ñĭ": 1659,
      "Ð¼ÐµÑĪ": 1660,
      "ÑĩÐµÐ½Ð¸": 1661,
      "ÑĩÐ°Ð»Ð¾": 1662,
      "ÑĩÐ°ÐµÑĤÐµ": 1663,
      "ÑĩÐµÑģÐºÐ¸Ð¹": 1664,
      "Ð´Ñĭ": 1665,
      "Ð´Ð°Ð»": 1666,
      "Ð´Ð½Ð¾": 1667,
      "Ð´Ð¾Ð»": 1668,
      "Ð´Ð°Ð²": 1669,
      "Ð´Ð¾ÑĤ": 1670,
      "Ð´ÐµÐ²": 1671,
      "Ð´Ð¸Ñĩ": 1672,
      "Ð´Ð½Ð°Ð¶": 1673,
      "ĠÐ½Ð¾Ð²": 1674,
      "ĠÐ½Ð°Ð¼": 1675,
      "ĠÐ½ÐµÐ¹": 1676,
      "ĠÐ½Ð¾Ð³": 1677,
      "ĠÐ½ÐµÐ±": 1678,
      "ĠÐ½ÐµÐ¿": 1679,
      "ĠÐ½Ð¸Ñħ": 1680,
      "Ð°Ð»Ð¾ÑģÑĮ": 1681,
      "Ð°Ð»ÑıÐ²": 1682,
      "Ð°Ð»ÐµÐ½ÑĮ": 1683,
      "ÐµÑĢÐµÐ´": 1684,
      "ÐµÑĢÐºÐ°": 1685,
      "ÑĪÐº": 1686,
      "ÑĪÑĮ": 1687,
      "ĠÐ¸Ð»Ð¸": 1688,
      "ÑİÑģÑĮ": 1689,
      "ÑİÑĢÐ¾": 1690,
      "ĠÐ¨ÑĤÐ¸ÑĢÐ»Ð¸ÑĨÐµÐ¼": 1691,
      "ĠÐ¾Ð¿": 1692,
      "ĠÐ¾Ð·": 1693,
      "ĠÐ¾ÐºÑĢ": 1694,
      "ĠÐ¾Ð³Ð¾": 1695,
      "ĠÐ¾ÑģÑĤÐ°Ð²": 1696,
      "ĠÐ¾Ð³ÑĢ": 1697,
      "ĠÐ¾ÑĢÑĥÐ¶": 1698,
      "ÐµÑĤÐµÐ»": 1699,
      "ÐµÑĤÐ½Ð¾": 1700,
      "ÐµÑĤÐµÐ¹": 1701,
      "ÐµÑĤÐ½Ð¸Ñĩ": 1702,
      "ÑĤÐ¾ÑĢÑĥ": 1703,
      "ĠÐºÐ¸Ð´": 1704,
      "ĠÐºÐ°Ð¿": 1705,
      "ĠÐºÑĥÑĩ": 1706,
      "ÐµÐ»Ð¾Ð²": 1707,
      "ÐµÐ»Ð°ÑģÑĮ": 1708,
      "ÐµÐ»ÑĭÐ¹": 1709,
      "Ð¾Ð´Ð¸Ð»": 1710,
      "ĠÐ´ÑĥÐ¼": 1711,
      "ĠÐ´Ð°Ð»Ð¸": 1712,
      "ĠÐ´Ð°ÑĤÑĮ": 1713,
      "ĠÐ´Ð¾Ð±": 1714,
      "ĠÐ´ÐµÐ·": 1715,
      "ĠÐ´Ð²Ðµ": 1716,
      "ĠÐ´ÑĭÐ¼": 1717,
      "ĠÐ´Ð¾Ð½ÐµÑģ": 1718,
      "ĠÐ´ÐµÑĤÐµÐ¹": 1719,
      "ÑħÑĥ": 1720,
      "ÑħÑĥÑĪ": 1721,
      "ÑħÐ°ÑĢÐ°ÐºÑĤÐµÑĢ": 1722,
      "ĠÑĥÐºÑĢ": 1723,
      "ĠÑĥÑħÐ¾Ð´": 1724,
      "ĠÑĥÐ³Ð»": 1725,
      "Ð¾Ð¼Ð±": 1726,
      "ÐµÐ½Ð¾": 1727,
      "ÐµÐ½Ð¾Ð¼": 1728,
      "ÐµÐ½Ð¾Ð²": 1729,
      "ÐµÐ½Ð·": 1730,
      "ÐµÐ½ÑĨÐ¸Ñİ": 1731,
      "ÐµÐ½Ð½ÑĭÑħ": 1732,
      "Ð¾Ð²Ð¾Ð¹": 1733,
      "Ð¾Ð²Ð°Ð²": 1734,
      "Ð¾Ð²Ð¸Ðº": 1735,
      "Ð¾Ð²ÑĭÐ¹": 1736,
      "ĠÐ·Ð°Ñģ": 1737,
      "ĠÐ·Ð°ÑĤ": 1738,
      "ĠÐ·Ð²ÐµÑĢ": 1739,
      "ĠÐ·Ð½Ð°": 1740,
      "ĠÐ·Ð°Ð¹": 1741,
      "ĠÐ·Ð²Ð¾Ð½": 1742,
      "ĠÐ·Ð½Ð°Ñĩ": 1743,
      "ĠÐ·ÐµÑĢÐº": 1744,
      "Ð¿Ð¾ÑĢ": 1745,
      "Ð¿Ð»Ñİ": 1746,
      "Ð¿ÑĢÑĭ": 1747,
      "Ð¿Ð¸ÑģÑĮ": 1748,
      "Ð¿Ð¸Ð¾Ð½": 1749,
      "Ð¿Ð°ÐºÐ¾Ð¼": 1750,
      "ÑģÑĤÑĥÑĩ": 1751,
      "ĠÑĢÐ¾Ð´": 1752,
      "ĠÑĢÐ¾ÑĤ": 1753,
      "ĠÑĢÐ¶": 1754,
      "ĠÑĢÐ¾Ð¶": 1755,
      "ĠÑĢÑĥÑĩ": 1756,
      "ĠÑĢÑĥÐ±": 1757,
      "ĠÑĢÐ¾Ð´Ð¸Ð½": 1758,
      "ĠÑĢÐ°ÑģÑĤ": 1759,
      "ĠÑĢÐ¾Ð²Ð½Ð¾": 1760,
      "ĠÐ±Ð¾Ð»": 1761,
      "ĠÐ±ÐµÑģ": 1762,
      "ĠÐ±Ð°ÑĪ": 1763,
      "ĠÐ±ÑĢÐ¾ÑģÐ¸Ð»": 1764,
      "ĠÐ±ÐµÐ¶Ð°Ð»": 1765,
      "ĠÐ±Ð°Ð½Ð´": 1766,
      "ĠÐ±ÑĥÐ½": 1767,
      "ĠÐ±Ð»Ð¸Ð·": 1768,
      "ĠÐ±Ð¾Ð¼Ð±": 1769,
      "ÑģÑıÑĤ": 1770,
      "Ð°Ð½Ðº": 1771,
      "Ð°Ð½Ð½ÑĥÑİ": 1772,
      "Ð°Ð½ÑĨÐµÐ»ÑıÑĢÐ¸": 1773,
      "ĠÐ¿Ð¾ÑĢ": 1774,
      "ĠÐ¿Ð¾ÑģÑĤÑĥÑĩ": 1775,
      "ĠÐ½Ð°ÑģÑĤ": 1776,
      "ĠÐ¼Ñĭ": 1777,
      "ĠÐ¼Ð¾Ð³": 1778,
      "ĠÐ¼ÑĭÐ»": 1779,
      "ĠÐ¼Ð°Ð³": 1780,
      "ĠÐ¼Ð°Ð¹": 1781,
      "ĠÐ¼ÐµÑĪ": 1782,
      "ĠÐ¼Ð½Ð¾Ð³Ð¾": 1783,
      "ĠÐ¼Ð¾Ð³Ñĥ": 1784,
      "ĠÐ¼ÐµÑģÑĤÐ¾": 1785,
      "ĠÐ¼Ð°Ð»ÐµÐ½ÑĮ": 1786,
      "Ð°Ð·Ð°Ð½Ð¸Ðµ": 1787,
      "ĠÑĤÐµ": 1788,
      "ĠÑĤÐ°Ð±": 1789,
      "ĠÑĤÐ°Ð¹": 1790,
      "ĠÑĤÐ¾Ð³Ð¾": 1791,
      "ĠÑĤÐµÐº": 1792,
      "ĠÑĤÐ¾Ð³Ð´Ð°": 1793,
      "ĠÑĤÐ¾Ð¼Ñĥ": 1794,
      "ĠÑĤÐ°Ð½Ðº": 1795,
      "Ð¸ÑĤÐ°Ð²": 1796,
      "Ð·ÑĭÐº": 1797,
      "Ð·Ð¾Ð²Ð¸Ðº": 1798,
      "Ð±Ñĭ": 1799,
      "Ð±ÑĥÑģ": 1800,
      "Ð±Ð»Ð¾Ðº": 1801,
      "Ð±ÑİÑĢÐ¾": 1802,
      "ĠÐ½ÐµÑģÐº": 1803,
      "ĠÐ½ÐµÑĥÐ´": 1804,
      "ĠÐ½ÐµÐ¾Ð¶Ð¸Ð´Ð°Ð½Ð½Ð¾": 1805,
      "ĠÐ½ÐµÐ²ÐºÑĥ": 1806,
      "ĠÐ¿ÑĢÐ¾Ðº": 1807,
      "ĠÐ¿ÑĢÐ¾Ñĩ": 1808,
      "ĠÐ¿ÑĢÐ¾Ð½ÐµÑģ": 1809,
      "Ð°ÑģÐºÐ¸": 1810,
      "ľÑİÐ»ÐµÑĢ": 1811,
      "Ð¾Ð¹Ð¼": 1812,
      "ÑĦÐ¾Ð»": 1813,
      "ĠÐ¿Ð¾Ð´Ñģ": 1814,
      "ĠÐ¿Ð¾Ð´Ð²": 1815,
      "ĠÐ¿Ð¾Ð´Ð¾Ð·": 1816,
      "Ð°ÐºÑģÐ¸Ð¼": 1817,
      "ĠÑĩÐµÑĤ": 1818,
      "ĠÑĩÐ¸ÑĤ": 1819,
      "Ð¾ÑĢÐ¾Ð´": 1820,
      "Ð¾ÑĢÐ¾ÑĪ": 1821,
      "Ð¾ÑĢÐ¼Ðµ": 1822,
      "Ð¾ÑĢÐ¾ÑģÑĤÑĮÑİ": 1823,
      "Ð¾ÑĢÑıÑĩ": 1824,
      "Ð¸Ð½ÐµÑĨ": 1825,
      "ÑĥÐ¼Ð°Ð»Ð¸": 1826,
      "ÑĥÐ¼ÑĭÐ²": 1827,
      "ÑĥÐ¼ÑĭÐ²Ð°Ñı": 1828,
      "Ð½Ð¾ÑģÑĤÑĮÑİ": 1829,
      "ÐºÐ¸Ðµ": 1830,
      "Ð°ÑĤÐ½ÑĥÑİ": 1831,
      "Ð°ÑĤÑĭÐµ": 1832,
      "Ð¹ÑĨÐ°": 1833,
      "Ð¸Ð´Ð¸ÑĤ": 1834,
      "ĠÐ³Ð¾Ð´": 1835,
      "ĠÐ³Ð°Ð´": 1836,
      "ĠÐ³Ð½Ð°Ð»": 1837,
      "Ð¾Ð½Ñĥ": 1838,
      "Ð¾Ð½Ð¾Ð²": 1839,
      "Ð¾Ð½Ð°Ð»Ð¸": 1840,
      "Ð¾Ð½ÐµÑĨ": 1841,
      "Ð¾Ð»Ð³": 1842,
      "Ð¾Ð»Ð»ÐµÐ¹": 1843,
      "Ð°ÑĢÑĥ": 1844,
      "Ð°ÑĢÐ¾Ð²": 1845,
      "Ð°ÑĢÐ¸Ðº": 1846,
      "Ð°Ð´Ð¸": 1847,
      "Ð°Ð´Ð¾Ð¹": 1848,
      "ĠÐĴÐ°Ð¼": 1849,
      "ĠÐĴÑģÐ¿": 1850,
      "ĠÐ²ÑĭÐºÑĢ": 1851,
      "ĠÐ²ÑĭÑħÐ¾Ð´": 1852,
      "ĠÐ²ÑĭÐ³Ð»Ñı": 1853,
      "ĠÐ²ÑĭÐ´Ð°Ð»ÑģÑı": 1854,
      "ĠÐľÑİÐ»Ð»ÐµÑĢÐ¾Ð¼": 1855,
      "Ð³Ñĥ": 1856,
      "ÐµÐ´Ñĥ": 1857,
      "ĠÐ¾ÑĤÐ±": 1858,
      "ĠÐ¾ÑĤÐµÑĨ": 1859,
      "Ð°Ð²ÑģÑĤÑĢÐµ": 1860,
      "Ð°Ð²ÑĤÑĢÐ°": 1861,
      "Ð°Ð²Ð°Ð¹ÑĤÐµ": 1862,
      "Ð°Ð²ÐµÑģÐºÐ¸": 1863,
      "Ð°Ð²ÑĪÐµÐ³Ð¾": 1864,
      "Ð½ÑĥÐµÑĤ": 1865,
      "ĠÐ»Ð¾Ð¶": 1866,
      "ĠÐ»ÑĥÑĩ": 1867,
      "ĠÐ»ÐµÐ¶": 1868,
      "ĠÐ»ÐµÐ¶Ð°Ð»": 1869,
      "ĠÐµÑģÑĤÑĮ": 1870,
      "Ð¾Ð³Ð°": 1871,
      "Ð¾Ð³Ð°ÑĤÑĭÐµ": 1872,
      "ÐµÑģÑĤÐ¸": 1873,
      "ÐµÑģÐºÑĥ": 1874,
      "ÐµÑģÐ»Ð¾": 1875,
      "ĠÐ¿Ð¾Ð´ÑĥÐ¼Ð°Ð»Ð°": 1876,
      "ĠÐŁÐ¾": 1877,
      "ĠÐŁÐ¾Ð¶": 1878,
      "ĠÐŁÐ°ÑģÑĤÐ¾ÑĢ": 1879,
      "ĠÐŁÐ¸ÑĪ": 1880,
      "ĠÐŁÑĢÐ¾Ð½": 1881,
      "ĠÐŁÐ¾ÑģÐ»Ðµ": 1882,
      "ÑĢÑĥÐ´": 1883,
      "ÑĢÑĥÐ±": 1884,
      "ÑĢÑĥÐ¿Ð¿": 1885,
      "ĠÐ·Ð°ÑĩÐµÐ¼": 1886,
      "ĠÐ·Ð°ÑħÐ¾ÑĤ": 1887,
      "ÑīÐµÐ½Ð½Ð¾": 1888,
      "ÐµÐ²Ð¾Ð¹": 1889,
      "ÐµÐ²ÑĭÐ²Ð°Ñı": 1890,
      "ĠÑĢÐ°Ð·Ð´": 1891,
      "ĠÑĢÐ°Ð·Ð³": 1892,
      "ĠÑĢÐ°Ð·ÑĭÐ³ÑĢ": 1893,
      "ĠÐ¡Ð¿": 1894,
      "ĠÐ¡Ð²ÐµÑĢ": 1895,
      "ĠÐ¡Ð¡": 1896,
      "ĠÐ¡Ð¾Ð²ÐµÑĤ": 1897,
      "ĠÐ¡Ð¾ÑĢÐ¾Ðº": 1898,
      "ĠÐ¡Ð»Ð¾Ð½": 1899,
      "ĠÐ¡ÐºÐ¾Ð»ÑĮÐºÐ¾": 1900,
      "ĠÐĿÐ¾": 1901,
      "ĠÐĿÐ°Ð²ÑģÑĤÑĢÐµ": 1902,
      "ĠÐ¾Ð½Ð¸": 1903,
      "Ð°Ð±Ð°": 1904,
      "Ð¾ÐºÐ¾Ð¹": 1905,
      "Ð¾ÐºÐ¾Ð»": 1906,
      "Ð¾ÐºÐµÑĤÐ½Ð¸Ñĩ": 1907,
      "ÐµÐ·Ð¸Ð´": 1908,
      "ÐµÐ·Ð´Ð°": 1909,
      "ĠÑĤÐ¾ÑĢ": 1910,
      "ĠÑĤÐ¾ÑģÐº": 1911,
      "ĠÑĤÐ¾ÑĩÐ½Ð¾": 1912,
      "ĠÐļÑĤÐ¾": 1913,
      "ĠÐļÐ¾Ð¿": 1914,
      "ĠÐļÐ¾Ð³Ð´Ð°": 1915,
      "ĠÐļÐł": 1916,
      "ÑĭÐ²Ð°ÑĤÑĮ": 1917,
      "ÑĭÐ²Ð°Ð»Ð°ÑģÑĮ": 1918,
      "ĠÑıÐ·ÑĭÐº": 1919,
      "ĠÑıÐ±Ð»Ð¾Ðº": 1920,
      "ĠÑıÐ¹ÑĨÐ°": 1921,
      "ÑıÑĤÐ¾Ð¹": 1922,
      "Ð¾ÑĩÐ½Ð¾": 1923,
      "Ð¾ÑĩÐºÐ°": 1924,
      "Ð¾ÑĩÐµÑģÑĤ": 1925,
      "ĠÑįÐ»Ðµ": 1926,
      "ĠÑģÐºÐ¾Ð»ÑĮÐºÐ¾": 1927,
      "ĠÑģÐºÐ°Ð¶Ñĥ": 1928,
      "ĠÑģÐºÐ¾ÑĢÐ¾ÑģÑĤÑĮÑİ": 1929,
      "ĠÐ¸Ð·Ð¼ÐµÐ½": 1930,
      "ÑĤÐ¾ÑĢÐ°": 1931,
      "ĠÐĳÐ¾p": 1932,
      "ÐºÐ¾Ðµ": 1933,
      "ĠÐ°Ð³": 1934,
      "ĠÑģÐ¿Ð°Ð»": 1935,
      "ĠÑģÐ¿Ð¸Ð½": 1936,
      "ĠÑģÐ¿Ð¾ÐºÐ¾Ð¹": 1937,
      "ĠÐ¾Ð±Ð»": 1938,
      "ĠÐ¾Ð±ÑĢÐ°": 1939,
      "ĠÐ¾Ð±ÑıÐ·": 1940,
      "ĠÐ¾Ð±Ð¾Ð¸": 1941,
      "Ð¸Ð²ÑĪÐ¸ÑģÑĮ": 1942,
      "Ð¸Ð²Ð°ÐµÑĤÑģÑı": 1943,
      "Ð»ÐµÑĦÐ°Ð½ÑĤ": 1944,
      "ÑĢÐµÑī": 1945,
      "Ð¼ÑĥÐ½Ð¸ÑģÑĤÐ¸": 1946,
      "Ð¼ÑĥÑīÐµÐ½Ð½Ð¾": 1947,
      "ÑħÐ¾Ð´Ñı": 1948,
      "ÑħÐ¾Ð´Ð¸Ð»": 1949,
      "Ð°Ð·Ð°Ð»Ð°ÑģÑĮ": 1950,
      "ĠÑĪÑĥÐ¼": 1951,
      "ĠÑĪÐµÑģÑĤ": 1952,
      "ĠÑĪÐ¿Ð¸Ð¾Ð½": 1953,
      "Ð¾Ð¿ÑĭÑħ": 1954,
      "Ð¾Ð¿Ð»Ð°Ð²": 1955,
      "ĠÐ²ÑģÐµÐ³": 1956,
      "ÐµÐ±ÑĥÐµÑĤÑģÑı": 1957,
      "ÐĴÑĭ": 1958,
      "ÐĴÐ°Ð»ÑĮ": 1959,
      "ÐŁÐ¾Ð´": 1960,
      "ÐŁÐ°ÑģÑĤÐ¾ÑĢ": 1961,
      "ÐŁÑĢÐ¾": 1962,
      "ÐŁÑĢÐ¸": 1963,
      "ÐŁÑĢÐ°Ð²Ð´Ð°": 1964,
      "ĠÐĶÑĢÐµÐ·Ð´": 1965,
      "ĠÐĶÐ°Ð²Ð°Ð¹ÑĤÐµ": 1966,
      "ĠÐłÑıÐ·": 1967,
      "ĠÐłÐ°Ð½ÑĮÑĪÐµ": 1968,
      "Ð¾Ð·Ð³Ð»": 1969,
      "ĠÐ¶Ð¸Ð·Ð½": 1970,
      "Ð¸ÑģÐ°Ð½Ð¾": 1971,
      "ĠÑĦÐ¾ÑĢÐ¼Ðµ": 1972,
      "ĠÐĲÐ±": 1973,
      "ĠÐĺÑģÐ¿": 1974,
      "ÑĥÑĤÑĮ": 1975,
      "Ð°Ð½Ð¸ÑĨÑĭ": 1976,
      "Ð¸ÑĩÑĮ": 1977,
      "ĠÐŀÐ½Ð°": 1978,
      "ĠÐŀÐ´Ð½Ð°Ð¶": 1979,
      "ĠÐĵÐ¾ÑĢÐ¾Ð´": 1980,
      "ĠÐľÐ¾Ð¶": 1981,
      "ĠÐľÐ¸Ð¼Ð¾": 1982,
      "ĠÐľÐ°ÐºÑģÐ¸Ð¼": 1983,
      "Ð»ÑıÑİÑģÑĮ": 1984,
      "ÑģÐºÐ°Ð¶": 1985,
      "ÑģÐºÐ°Ð·Ð°Ð»Ð°": 1986,
      "ÑģÐºÐ°Ð½ÑĨÐµÐ»ÑıÑĢÐ¸": 1987,
      "ÐµÐ½Ð¸Ñı": 1988,
      "ÐµÐ½Ð¸Ð¹": 1989,
      "ĠÐ±ÑĭÑģÑĤ": 1990,
      "ĠÑħÐ¸ÑĤ": 1991,
      "ĠÑħÐ°ÑĢÐ°ÐºÑĤÐµÑĢ": 1992,
      "ĠÑħÐ°Ð»ÑıÐ²": 1993,
      "ĠÑħÐ¾ÑĢÐ¾ÑĪ": 1994,
      "Ð°ÑħÐ½ÑĥÐ»ÑģÑı": 1995,
      "ĠÐ¼Ð°ÑĪÐ±ÑİÑĢÐ¾": 1996,
      "ĠÐ¿ÑĢÐ¸ÑĪ": 1997,
      "ĠÐ¿ÑĢÐ¸ÑĪÐµÐ»": 1998,
      "ĠÐ¿ÑĢÐ¸Ð·Ð½": 1999
    },
    "merges": [
      [
        "Ġ",
        "Ð"
      ],
      [
        "Ð",
        "¾"
      ],
      [
        "Ð",
        "°"
      ],
      [
        "Ð",
        "¸"
      ],
      [
        "Ð",
        "µ"
      ],
      [
        "Ð",
        "»"
      ],
      [
        "Ñ",
        "Ĥ"
      ],
      [
        "Ñ",
        "Ģ"
      ],
      [
        "Ñ",
        "ģ"
      ],
      [
        "Ð",
        "½"
      ],
      [
        "Ð¾",
        "Ð"
      ],
      [
        "Ñ",
        "ĥ"
      ],
      [
        "Ð",
        "º"
      ],
      [
        "Ð",
        "²"
      ],
      [
        "Ð»",
        "Ð¸"
      ],
      [
        "ĠÐ",
        "¿"
      ],
      [
        "Ñ",
        "Ĩ"
      ],
      [
        "Ñ",
        "ı"
      ],
      [
        "ÑĤ",
        "Ð¸"
      ],
      [
        "Ð°",
        "Ð"
      ],
      [
        "Ġ",
        "Ñģ"
      ],
      [
        "ĠÐ",
        "²"
      ],
      [
        "â",
        "Ģ"
      ],
      [
        "Ñ",
        "ĭ"
      ],
      [
        "Ñ",
        "Į"
      ],
      [
        "âĢ",
        "ĵ"
      ],
      [
        "Ð»Ð¸",
        "ÑĨ"
      ],
      [
        "ÑĤÐ¸",
        "ÑĢ"
      ],
      [
        "¨",
        "ÑĤÐ¸ÑĢ"
      ],
      [
        "Ð",
        "¼"
      ],
      [
        "¨ÑĤÐ¸ÑĢ",
        "Ð»Ð¸ÑĨ"
      ],
      [
        "Ñ",
        "ĩ"
      ],
      [
        "Ð",
        "´"
      ],
      [
        "ĠÐ",
        "½"
      ],
      [
        "Ð°",
        "Ð»"
      ],
      [
        "Ðµ",
        "ÑĢ"
      ],
      [
        "Ñ",
        "Ī"
      ],
      [
        "ĠÐ",
        "¸"
      ],
      [
        "Ñ",
        "İ"
      ],
      [
        "ĠÐ",
        "¨ÑĤÐ¸ÑĢÐ»Ð¸ÑĨ"
      ],
      [
        "ĠÐ",
        "¾"
      ],
      [
        "Ðµ",
        "ÑĤ"
      ],
      [
        "Ðµ",
        "Ð"
      ],
      [
        "ÑĤ",
        "Ð¾"
      ],
      [
        "ĠÐ",
        "º"
      ],
      [
        "Ðµ",
        "Ð»"
      ],
      [
        "Ð¾Ð",
        "´"
      ],
      [
        "ĠÐ",
        "´"
      ],
      [
        "Ġ",
        "âĢĵ"
      ],
      [
        "Ñ",
        "ħ"
      ],
      [
        "Ġ",
        "Ñĥ"
      ],
      [
        "Ð¾Ð",
        "¼"
      ],
      [
        "Ðµ",
        "Ð½"
      ],
      [
        "Ð¾Ð",
        "²"
      ],
      [
        "ĠÐ",
        "·"
      ],
      [
        "Ð",
        "¿"
      ],
      [
        "Ñģ",
        "ÑĤ"
      ],
      [
        "Ġ",
        "ÑĢ"
      ],
      [
        "ĠÐ",
        "±"
      ],
      [
        "Ñģ",
        "Ñı"
      ],
      [
        "Ð°",
        "Ð½"
      ],
      [
        "ĠÐ¿",
        "Ð¾"
      ],
      [
        "Ð¸",
        "Ð»"
      ],
      [
        "Ð",
        "¨ÑĤÐ¸ÑĢÐ»Ð¸ÑĨ"
      ],
      [
        "ĠÐ½",
        "Ð°"
      ],
      [
        "ĠÐ",
        "¼"
      ],
      [
        "Ð°Ð",
        "·"
      ],
      [
        "Ġ",
        "ÑĤ"
      ],
      [
        "Ð¸",
        "ÑĤ"
      ],
      [
        "Ð",
        "·"
      ],
      [
        "Ð",
        "±"
      ],
      [
        "³",
        "Ð¾"
      ],
      [
        "ĠÐ½",
        "Ðµ"
      ],
      [
        "Ð»",
        "ÐµÑĢ"
      ],
      [
        "ĠÐ¿",
        "ÑĢ"
      ],
      [
        "Ð°",
        "Ñģ"
      ],
      [
        "Â",
        "«"
      ],
      [
        "Â",
        "»"
      ],
      [
        "ľ",
        "Ñİ"
      ],
      [
        "Ð¾",
        "Ñģ"
      ],
      [
        "Ð¾Ð",
        "¹"
      ],
      [
        "Ñ",
        "Ħ"
      ],
      [
        "ľÑİ",
        "Ð»"
      ],
      [
        "ĠÐ¿",
        "Ð¾Ð´"
      ],
      [
        "Ð°",
        "Ðº"
      ],
      [
        "ľÑİÐ»",
        "Ð»ÐµÑĢ"
      ],
      [
        "Ġ",
        "Ñĩ"
      ],
      [
        "Ð¾",
        "ÑĢ"
      ],
      [
        "Ð¸",
        "Ð½"
      ],
      [
        "Ñĥ",
        "Ð¼"
      ],
      [
        "Ġ",
        "Â«"
      ],
      [
        "Ð½",
        "Ð¾"
      ],
      [
        "Ðº",
        "Ð¸"
      ],
      [
        "Ð°",
        "ÑĤ"
      ],
      [
        "Ð",
        "¹"
      ],
      [
        "Ð¸",
        "Ð´"
      ],
      [
        "Ð°Ð",
        "¼"
      ],
      [
        "ĠÐ",
        "³"
      ],
      [
        "Ð¾",
        "Ð½"
      ],
      [
        "Ð¾",
        "Ð»"
      ],
      [
        "Ð°",
        "ÑĢ"
      ],
      [
        "Ð°Ð",
        "´"
      ],
      [
        "ĠÐ",
        "Ĵ"
      ],
      [
        "ĠÐ²",
        "Ñĭ"
      ],
      [
        "ĠÐ",
        "ľÑİÐ»Ð»ÐµÑĢ"
      ],
      [
        "Ð",
        "³"
      ],
      [
        "ÐµÐ",
        "¹"
      ],
      [
        "Ðµ",
        "Ð´"
      ],
      [
        "Ðº",
        "Ñĥ"
      ],
      [
        "ĠÐ¾",
        "ÑĤ"
      ],
      [
        "Ð°",
        "Ð²"
      ],
      [
        "Ð½",
        "Ñĥ"
      ],
      [
        "ÑĥÐ¼",
        "Ð°Ð»"
      ],
      [
        "ĠÐ",
        "»"
      ],
      [
        "Ð¾",
        "ÑĤ"
      ],
      [
        "Ð°",
        "ÐµÑĤ"
      ],
      [
        "ÑĪ",
        "ÐµÐ»"
      ],
      [
        "ĠÐ",
        "µ"
      ],
      [
        "Ð¾Ð",
        "³"
      ],
      [
        "Ðµ",
        "Ð¼"
      ],
      [
        "Ð",
        "¶"
      ],
      [
        "Ðµ",
        "Ñģ"
      ],
      [
        "ĠÐ¿Ð¾Ð´",
        "ÑĥÐ¼Ð°Ð»"
      ],
      [
        "Ñ",
        "į"
      ],
      [
        "ĠÐ",
        "Ł"
      ],
      [
        "Ð¸",
        "Ðº"
      ],
      [
        "ÑĢ",
        "Ñĥ"
      ],
      [
        "Ñĭ",
        "Ð»"
      ],
      [
        "ĠÑĩ",
        "ÑĤÐ¾"
      ],
      [
        "Ðº",
        "Ð°"
      ],
      [
        "ĠÐ¿",
        "Ð¾Ð"
      ],
      [
        "Ð°",
        "Ð»Ð¸"
      ],
      [
        "ĠÐ·",
        "Ð°"
      ],
      [
        "Ñ",
        "ī"
      ],
      [
        "Ðµ",
        "Ð²"
      ],
      [
        "ĠÑĢ",
        "Ð°Ð·"
      ],
      [
        "ĠÐ",
        "¡"
      ],
      [
        "ĠÐ",
        "Ŀ"
      ],
      [
        "ÑĪ",
        "Ð¸"
      ],
      [
        "ĠÐ¾",
        "Ð½"
      ],
      [
        "âĢ",
        "¦"
      ],
      [
        "Ð¾Ð",
        "¶"
      ],
      [
        "Ð²",
        "ÐµÑĢ"
      ],
      [
        "Ð°Ð",
        "±"
      ],
      [
        "Ð°ÑĤ",
        "ÑĮ"
      ],
      [
        "Ð½",
        "Ñĭ"
      ],
      [
        "Ð¾Ð",
        "±"
      ],
      [
        "Ð°Ð",
        "¿"
      ],
      [
        "ĠÑģ",
        "Ð²"
      ],
      [
        "Ð°",
        "Ñı"
      ],
      [
        "Ð¾Ð",
        "º"
      ],
      [
        "ÐµÐ",
        "·"
      ],
      [
        "Ġ",
        "ÑĤÐ¾"
      ],
      [
        "ĠÐ",
        "ļ"
      ],
      [
        "Ñĭ",
        "Ð²"
      ],
      [
        "Ġ",
        "Ñı"
      ],
      [
        "ÑĤ",
        "ÑĢ"
      ],
      [
        "Ðº",
        "ÑĢ"
      ],
      [
        "Ñı",
        "ÑĤ"
      ],
      [
        "Ð¾",
        "Ñĩ"
      ],
      [
        "Ð°Ð»",
        "ÑģÑı"
      ],
      [
        "Ġ",
        "Ñį"
      ],
      [
        "Ð¸",
        "Ð¼"
      ],
      [
        "ĠÑģ",
        "Ðº"
      ],
      [
        "ĠÐ¸",
        "Ð·"
      ],
      [
        "ÑĤÐ¾",
        "ÑĢ"
      ],
      [
        "Ð¸Ð´",
        "ÐµÐ»"
      ],
      [
        "ĠÐ",
        "ĳ"
      ],
      [
        "Ñģ",
        "ÑĮ"
      ],
      [
        "Ðº",
        "Ð¾"
      ],
      [
        "ĠÐ",
        "°"
      ],
      [
        "Ð°",
        "ÑĪ"
      ],
      [
        "ĠÑģ",
        "Ð¿"
      ],
      [
        "ĠÐ¾",
        "Ð±"
      ],
      [
        "Ð¸",
        "Ð²"
      ],
      [
        "Ð»",
        "Ðµ"
      ],
      [
        "ÑĢ",
        "Ðµ"
      ],
      [
        "Ñĥ",
        "Ñģ"
      ],
      [
        "Ð´",
        "Ð°"
      ],
      [
        "ĠÐ±",
        "ÑĭÐ»"
      ],
      [
        "Ð¼",
        "Ñĥ"
      ],
      [
        "Â»",
        "."
      ],
      [
        "Ð½",
        "Ð°"
      ],
      [
        "Ñı",
        "Ð»"
      ],
      [
        "Ð°Ð",
        "³"
      ],
      [
        "ĠÑģ",
        "Ð»"
      ],
      [
        "Ñħ",
        "Ð¾Ð´"
      ],
      [
        "ĠÑĥ",
        "Ð²"
      ],
      [
        "Ð°Ð·",
        "Ð°Ð»"
      ],
      [
        "Ġ",
        "ÑĪ"
      ],
      [
        "ĠÐ",
        "¨"
      ],
      [
        "Ð¾Ð",
        "¿"
      ],
      [
        "Ñĥ",
        "Ñĩ"
      ],
      [
        "ĠÐ²",
        "Ñģ"
      ],
      [
        "ÐµÐ",
        "±"
      ],
      [
        "Ð½Ñĥ",
        "Ð»"
      ],
      [
        "Ð",
        "Ĵ"
      ],
      [
        "Ð",
        "Ł"
      ],
      [
        "ĠÐ",
        "Ķ"
      ],
      [
        "ĠÐ",
        "ł"
      ],
      [
        "ĠÐ",
        "³Ð¾"
      ],
      [
        "ÑĢ",
        "Ð¾Ñģ"
      ],
      [
        "Ð½",
        "Ð¾Ð¹"
      ],
      [
        "Ð²",
        "Ðµ"
      ],
      [
        "Ð°Ð",
        "¹"
      ],
      [
        "Ð¾Ð",
        "·"
      ],
      [
        "Ð¾Ð",
        "³Ð¾"
      ],
      [
        "Ð¼",
        "Ð°Ð½"
      ],
      [
        "ĠÐ¨ÑĤÐ¸ÑĢÐ»Ð¸ÑĨ",
        "Ð°"
      ],
      [
        "ÐµÐ",
        "³Ð¾"
      ],
      [
        "Ð²ÐµÑĢ",
        "ÑĮ"
      ],
      [
        "ĠÑĥÐ²",
        "Ð¸Ð´ÐµÐ»"
      ],
      [
        "ĠÐ",
        "¶"
      ],
      [
        "Ð¸",
        "Ñģ"
      ],
      [
        "Ð¸ÑĤ",
        "ÑĮ"
      ],
      [
        "Ð",
        "³Ð¾"
      ],
      [
        "Ġ",
        "ÑĦ"
      ],
      [
        "ĠÐ",
        "Ĳ"
      ],
      [
        "ĠÐ",
        "ĺ"
      ],
      [
        "Ñĥ",
        "ÑĤ"
      ],
      [
        "Ð°Ð½",
        "Ð¸"
      ],
      [
        "Ð",
        "ľÑİÐ»Ð»ÐµÑĢ"
      ],
      [
        "Ð¸",
        "Ñĩ"
      ],
      [
        "Ð»",
        "ÑĮ"
      ],
      [
        "ÑĤÐ¸",
        "Ð»"
      ],
      [
        "ĠÐº",
        "Ð°Ðº"
      ],
      [
        "ĠÐ",
        "ŀ"
      ],
      [
        "Ð°Ð",
        "¶"
      ],
      [
        "ÐºÐ¸",
        "Ð¹"
      ],
      [
        "ĠÑģÐº",
        "Ð°Ð·Ð°Ð»"
      ],
      [
        "ĠÐ",
        "ĵ"
      ],
      [
        "ĠÐ",
        "ľ"
      ],
      [
        "Ðµ",
        "ÑģÑĤ"
      ],
      [
        "Ð»",
        "Ñı"
      ],
      [
        "Ñģ",
        "Ðº"
      ],
      [
        "ĠÐº",
        "Ð°Ð±"
      ],
      [
        "ÐµÐ½",
        "Ð¸"
      ],
      [
        "Ð°Ñģ",
        "ÑĮ"
      ],
      [
        "ÑĢÐ¾Ñģ",
        "Ð¸Ð»"
      ],
      [
        "ĠÐºÐ°Ð±",
        "Ð¸Ð½"
      ],
      [
        "Ġ",
        "ÑĪÐµÐ»"
      ],
      [
        "Ð½",
        "Ð°Ð»"
      ],
      [
        "Ñĥ",
        "Ñİ"
      ],
      [
        "ĠÐ±",
        "Ñĭ"
      ],
      [
        "Ð¾Ð»",
        "ÑĮ"
      ],
      [
        "ĠÐºÐ°Ð±Ð¸Ð½",
        "ÐµÑĤ"
      ],
      [
        "Ġ",
        "Ñħ"
      ],
      [
        "Ð°",
        "Ñħ"
      ],
      [
        "ĠÐ¼",
        "Ð°ÑĪ"
      ],
      [
        "Ð¸ÑĤ",
        "Ðµ"
      ],
      [
        "ĠÐ¿ÑĢ",
        "Ð¸"
      ],
      [
        "ĠÐ¾ÑĤ",
        "ÐºÑĢ"
      ],
      [
        "ĠÐ¿Ð¾Ð",
        "¿"
      ],
      [
        "Ðµ",
        "ÑĪ"
      ],
      [
        "Ð½",
        "Ð¸"
      ],
      [
        "ĠÑģ",
        "ÑĤ"
      ],
      [
        "ĠÐ¾",
        "Ðº"
      ],
      [
        "ÐµÐ",
        "³"
      ],
      [
        "ĠÐº",
        "Ð¾Ð½"
      ],
      [
        "ĠÐ´",
        "Ð²ÐµÑĢÑĮ"
      ],
      [
        "Ð°Ñģ",
        "ÑĤÐ¾ÑĢ"
      ],
      [
        "Ð¾ÑĢ",
        "Ð¼Ð°Ð½"
      ],
      [
        "ÑĭÐ²",
        "Ð°ÐµÑĤ"
      ],
      [
        "Ð»",
        "Ð¾"
      ],
      [
        "Ñĥ",
        "Ð´"
      ],
      [
        "Ð¾Ð²",
        "Ð°Ð»"
      ],
      [
        "ĠÑĤ",
        "ÑĢ"
      ],
      [
        "Â»",
        ","
      ],
      [
        "Ð¾Ñģ",
        "ÑĮ"
      ],
      [
        "ĠÐĴ",
        "Ñĭ"
      ],
      [
        "ĠÐ¾ÑĤ",
        "Ð²Ðµ"
      ],
      [
        "ÑıÑĤ",
        "ÑĮ"
      ],
      [
        "ĠÑį",
        "ÑĤÐ¾"
      ],
      [
        "ĠÐĳ",
        "Ð¾ÑĢÐ¼Ð°Ð½"
      ],
      [
        "ĠÐ¼Ð°ÑĪ",
        "Ð¸Ð½"
      ],
      [
        "Ðµ",
        "Ðº"
      ],
      [
        "ÑĤ",
        "Ð¾Ð¼"
      ],
      [
        "ÑĢ",
        "Ð°"
      ],
      [
        "ĠÑģ",
        "ÑĤÐ¾"
      ],
      [
        "ÐµÐ",
        "¶"
      ],
      [
        "ĠÐ¿Ð¾",
        "Ñģ"
      ],
      [
        "Ð¸Ð»",
        "ÑģÑı"
      ],
      [
        "ĠÑĤ",
        "Ð°Ðº"
      ],
      [
        "ĠÐµ",
        "Ð¼Ñĥ"
      ],
      [
        "ĠÑģÐ²",
        "Ð¾"
      ],
      [
        "ÑĥÑģ",
        "Ñģ"
      ],
      [
        "ĠÐ²Ñģ",
        "Ðµ"
      ],
      [
        "Ð",
        "Ŀ"
      ],
      [
        "Ð¸",
        "Ð»Ð¸"
      ],
      [
        "Ðµ",
        "Ñĩ"
      ],
      [
        "Ñĥ",
        "ÑĢ"
      ],
      [
        "ĠÐ¿",
        "ÐµÑĢ"
      ],
      [
        "ĠÑģ",
        "ÐµÐ¹"
      ],
      [
        "Ñĭ",
        "Ð¹"
      ],
      [
        "ĠÐ½",
        "Ð¾"
      ],
      [
        "ÐµÐ»",
        "ÑĮ"
      ],
      [
        "ĠÑĥ",
        "Ð¿"
      ],
      [
        "ÑģÑĤ",
        "ÑĢÐµ"
      ],
      [
        "ĠÐ¿Ð¾",
        "Ð»"
      ],
      [
        "ĠÐ»",
        "Ñİ"
      ],
      [
        "Ñį",
        "ÑĤ"
      ],
      [
        "ÑĢÑĥ",
        "Ð³"
      ],
      [
        "Ð",
        "¡"
      ],
      [
        "ĠÐ",
        "¢"
      ],
      [
        "Ð¾",
        "ÑĪ"
      ],
      [
        "Ð¸",
        "ÑĪ"
      ],
      [
        "Ð»",
        "Ð°"
      ],
      [
        "Ð½",
        "Ðµ"
      ],
      [
        "Ð²",
        "ÐµÐ´"
      ],
      [
        "ĠÐ¿",
        "Ð°ÑģÑĤÐ¾ÑĢ"
      ],
      [
        "ĠÑģ",
        "Ð¾"
      ],
      [
        "Ð°Ð»",
        "Ð°"
      ],
      [
        "ÑģÑĤ",
        "Ð²"
      ],
      [
        "ĠÐµ",
        "Ð³Ð¾"
      ],
      [
        "ĠÑģÐ¿",
        "ÑĢÐ¾ÑģÐ¸Ð»"
      ],
      [
        "ĠÐ¾ÑĤÐ²Ðµ",
        "ÑĤÐ¸Ð»"
      ],
      [
        "Ðµ",
        "ÑĨ"
      ],
      [
        "ÑĢ",
        "Ð¾"
      ],
      [
        "Ð½",
        "Ð¾Ð¼"
      ],
      [
        "Ð½",
        "Ð¸Ðº"
      ],
      [
        "Ñĥ",
        "Ð¶"
      ],
      [
        "Ð»Ð¸",
        "Ð²"
      ],
      [
        "ÑĨ",
        "Ð¸"
      ],
      [
        "ĠÑģ",
        "ÐµÐ±"
      ],
      [
        "ĠÐ²",
        "Ð·"
      ],
      [
        "Ñĩ",
        "Ð¸Ðº"
      ],
      [
        "ĠÑĥ",
        "Ð¶"
      ],
      [
        "ĠÐ·",
        "Ð°Ðº"
      ],
      [
        "Ð¾Ð³",
        "Ð´Ð°"
      ],
      [
        "ĠÐ³Ð¾",
        "Ð»"
      ],
      [
        "Ð»ÑĮ",
        "ÐºÐ¾"
      ],
      [
        "Ð",
        "ĵ"
      ],
      [
        "Ð",
        "ļ"
      ],
      [
        "Ð¾",
        "ÑĪÐµÐ»"
      ],
      [
        "Ð¸",
        "ÑĢ"
      ],
      [
        "Ðµ",
        "Ñħ"
      ],
      [
        "Ð»",
        "Ñİ"
      ],
      [
        "Ð»",
        "ÐµÐ¹"
      ],
      [
        "ÑĤ",
        "Ðµ"
      ],
      [
        "ĠÑģ",
        "ÑĤÑĢ"
      ],
      [
        "ĠÐ²",
        "Ð¾Ð´"
      ],
      [
        "ĠÐº",
        "ÑĢ"
      ],
      [
        "ÑģÑĤ",
        "ÑĮ"
      ],
      [
        "ĠÑĢ",
        "ÑĥÑģÑģ"
      ],
      [
        "ĠÐľÑİÐ»Ð»ÐµÑĢ",
        "Ð°"
      ],
      [
        "ÐµÐ¼",
        "Ñĥ"
      ],
      [
        "Ñī",
        "Ðµ"
      ],
      [
        "Ð½Ñĭ",
        "Ð¹"
      ],
      [
        "ĠÑĤÐ¾",
        "Ð»ÑĮÐºÐ¾"
      ],
      [
        "ĠÐļ",
        "ÑįÑĤ"
      ],
      [
        "ÑħÐ¾Ð´",
        "Ð¸ÑĤ"
      ],
      [
        "ĠÑģÐµÐ¹",
        "ÑĦ"
      ],
      [
        "ĠÑĥÐ¶",
        "Ðµ"
      ],
      [
        "Ð",
        "¨"
      ],
      [
        "Ñ",
        "Ĭ"
      ],
      [
        "Ð¸",
        "ÑģÑĤ"
      ],
      [
        "Ð»",
        "ÐµÐ½"
      ],
      [
        "Ðº",
        "Ðµ"
      ],
      [
        "Ñı",
        "Ð²"
      ],
      [
        "Ð¼",
        "Ð¾ÑĤ"
      ],
      [
        "Ð´",
        "Ðµ"
      ],
      [
        "Ð´",
        "ÑĢÑĥÐ³"
      ],
      [
        "ĠÐ´",
        "Ð¾Ð¼"
      ],
      [
        "ÐµÐ½",
        "Ñı"
      ],
      [
        "Ð·",
        "Ð½"
      ],
      [
        "ĠÐ½Ðµ",
        "Ð¼"
      ],
      [
        "ĠÐ¿ÑĢ",
        "Ð¾"
      ],
      [
        "Ð°Ð¼",
        "Ð¸"
      ],
      [
        "Ð½Ñĥ",
        "Ñİ"
      ],
      [
        "Ð½Ñĭ",
        "Ðµ"
      ],
      [
        "ĠÑı",
        "Ð²"
      ],
      [
        "ĠÐ±ÑĭÐ»",
        "Ð¾"
      ],
      [
        "!",
        "Â»"
      ],
      [
        "Ð",
        "Ĺ"
      ],
      [
        "ĠÐ",
        "§"
      ],
      [
        "Ð»",
        "Ð°Ð³"
      ],
      [
        "ÑĤ",
        "ÑĮ"
      ],
      [
        "Ñģ",
        "Ð¿"
      ],
      [
        "Ð²",
        "Ð¾Ð½"
      ],
      [
        "ÑĨ",
        "Ñĭ"
      ],
      [
        "ĠÐ²",
        "Ð¾Ð·"
      ],
      [
        "ÑĪ",
        "Ðµ"
      ],
      [
        "ĠÐ¾",
        "Ð´"
      ],
      [
        "ÐµÑĤ",
        "ÑĮ"
      ],
      [
        "ÐµÐ",
        "¿"
      ],
      [
        "ÐµÐ½",
        "ÑĤ"
      ],
      [
        "Ð¾Ð²",
        "Ð¾ÑĢ"
      ],
      [
        "ĠÐ·",
        "Ð½Ð°Ð»"
      ],
      [
        "ĠÑĢ",
        "Ð°Ñģ"
      ],
      [
        "ĠÑĢ",
        "Ð°Ð´"
      ],
      [
        "Ð½Ð¾",
        "Ðµ"
      ],
      [
        "ĠÐ³",
        "ÑĢ"
      ],
      [
        "ĠÐĴ",
        "Ð¾ÑĤ"
      ],
      [
        "Ð°Ð»Ð¸",
        "ÑģÑĮ"
      ],
      [
        "ĠÑĢÐ°Ð·",
        "Ð²ÐµÐ´"
      ],
      [
        "Ð¸Ð¼",
        "Ð¾"
      ],
      [
        "ĠÐ¨",
        "Ð»Ð°Ð³"
      ],
      [
        "ÐµÑģÑĤ",
        "Ð°Ð¿"
      ],
      [
        "ÐµÐ½Ð¸",
        "Ðµ"
      ],
      [
        "Ð»ÐµÐ¹",
        "ÑĪ"
      ],
      [
        "Ð¼Ð¾ÑĤ",
        "ÑĢ"
      ],
      [
        "Ð",
        "Ĳ"
      ],
      [
        "Ð",
        "ł"
      ],
      [
        "Ġ",
        "ÑĪÐ¸"
      ],
      [
        "ĠÐ",
        "£"
      ],
      [
        "Ñĥ",
        "Ð±"
      ],
      [
        "Ðº",
        "Ð¾Ð¹"
      ],
      [
        "Ðº",
        "Ð½ÑĥÐ»"
      ],
      [
        "ĠÑģ",
        "Ð¾Ð±"
      ],
      [
        "Ñĩ",
        "ÐµÑĢ"
      ],
      [
        "ĠÐ½",
        "Ð°Ð´"
      ],
      [
        "ĠÐ½",
        "Ð°Ð¿"
      ],
      [
        "ÐµÑĢ",
        "Ð»Ð¸"
      ],
      [
        "ĠÐ¨ÑĤÐ¸ÑĢÐ»Ð¸ÑĨ",
        "Ñĥ"
      ],
      [
        "ĠÐ´",
        "ÐµÐ»"
      ],
      [
        "ĠÑĥ",
        "Ð´"
      ],
      [
        "Ð¾Ð¼",
        "Ð½"
      ],
      [
        "ÐµÐ½",
        "ÑĮ"
      ],
      [
        "ĠÐ·",
        "Ð°Ð¼"
      ],
      [
        "ÑģÑĤ",
        "Ð°Ð²"
      ],
      [
        "ĠÐ²Ñĭ",
        "ÑĪÐµÐ»"
      ],
      [
        "ĠÐŁ",
        "Ð»ÐµÐ¹ÑĪ"
      ],
      [
        "ĠÐĿ",
        "Ð°"
      ],
      [
        "Ð½Ñĭ",
        "Ð¼"
      ],
      [
        "ĠÐ³Ð¾",
        "ÑĢ"
      ],
      [
        "ĠÑģÐµÐ±",
        "Ñı"
      ],
      [
        "!",
        "!"
      ],
      [
        "Ð",
        "ĳ"
      ],
      [
        "Ð",
        "ŀ"
      ],
      [
        "Ġ",
        "1"
      ],
      [
        "Ð°",
        "Ñİ"
      ],
      [
        "Ð¸",
        "Ñħ"
      ],
      [
        "ÑĤ",
        "Ð°"
      ],
      [
        "ÑĤ",
        "ÐµÑĢ"
      ],
      [
        "Ð½",
        "ÐµÑĢ"
      ],
      [
        "Ð½",
        "ÑıÐ»"
      ],
      [
        "Ñĥ",
        "Ñħ"
      ],
      [
        "ĠÑģ",
        "Ð¸Ð´"
      ],
      [
        "Ñĭ",
        "ÑĪ"
      ],
      [
        "ÑĮ",
        "Ñı"
      ],
      [
        "Ð°Ð»",
        "ÑĮ"
      ],
      [
        "ÐµÑĤ",
        "Ðµ"
      ],
      [
        "ÐµÑĤ",
        "ÑģÑı"
      ],
      [
        "ĠÐº",
        "Ð¾"
      ],
      [
        "ĠÐ´",
        "Ð²"
      ],
      [
        "Ð¾Ð²",
        "ÐµÑĤ"
      ],
      [
        "ĠÐ·",
        "Ð½"
      ],
      [
        "Ð¿",
        "ÑıÑĤÑĮ"
      ],
      [
        "ĠÐ¼",
        "ÐµÐ½Ñı"
      ],
      [
        "ĠÑĤ",
        "ÑĢÑĥ"
      ],
      [
        "ĠÑĩ",
        "ÐµÑĢ"
      ],
      [
        "ĠÐ³",
        "Ð°Ð·"
      ],
      [
        "ĠÐ³",
        "ÐµÑģÑĤÐ°Ð¿"
      ],
      [
        "ĠÐ»",
        "ÐµÑģ"
      ],
      [
        "ĠÐ·Ð°",
        "ÑĪÐµÐ»"
      ],
      [
        "ĠÑģÐ»",
        "ÐµÐ´"
      ],
      [
        "ĠÐ³Ð¾Ð»",
        "Ð¾Ð²"
      ],
      [
        "ĠÑĢÐ°Ð·Ð²ÐµÐ´",
        "ÑĩÐ¸Ðº"
      ],
      [
        "?",
        "Â»"
      ],
      [
        "p",
        "Ð»Ð¸ÑĨ"
      ],
      [
        "Ð",
        "Ķ"
      ],
      [
        "ĠÐ",
        "¯"
      ],
      [
        "ĠÐ",
        "Ń"
      ],
      [
        "Ð°",
        "Ñĩ"
      ],
      [
        "Ð°",
        "ÑĪÐ¸"
      ],
      [
        "ÑĢ",
        "Ð¾Ð²"
      ],
      [
        "ÑĢ",
        "Ð°Ð²"
      ],
      [
        "Ñģ",
        "Ð»"
      ],
      [
        "Ð½",
        "Ð¾Ð³Ð¾"
      ],
      [
        "Ð²",
        "ÐµÑĤ"
      ],
      [
        "ĠÐ¿",
        "p"
      ],
      [
        "ÑĨ",
        "Ð°"
      ],
      [
        "Ñı",
        "Ð·"
      ],
      [
        "ÑĤÐ¸",
        "pÐ»Ð¸ÑĨ"
      ],
      [
        "ĠÐ²",
        "ÑĢ"
      ],
      [
        "Ð¼",
        "Ðµ"
      ],
      [
        "Ñĩ",
        "Ñĥ"
      ],
      [
        "Ð´",
        "Ð¸"
      ],
      [
        "ÐµÑĢ",
        "Ð³"
      ],
      [
        "Ñİ",
        "ÑĢ"
      ],
      [
        "ĠÐº",
        "Ð¾ÑĢ"
      ],
      [
        "Ð¾Ð´",
        "Ð¸Ð½"
      ],
      [
        "ĠÑĥ",
        "ÑĤÑĢ"
      ],
      [
        "ĠÐ·",
        "Ð°Ð¿"
      ],
      [
        "ĠÐ±",
        "ÑĢ"
      ],
      [
        "ĠÐ±",
        "ÑĥÐ´"
      ],
      [
        "ĠÑĤ",
        "Ñĥ"
      ],
      [
        "Ð¾Ñģ",
        "Ðº"
      ],
      [
        "ĠÐ³",
        "Ð»"
      ],
      [
        "Ð¾Ð³",
        "Ñĥ"
      ],
      [
        "ĠÐ¿Ð¾Ð",
        "·"
      ],
      [
        "ĠÐ¿Ð¾Ð",
        "º"
      ],
      [
        "ĠÐ¡",
        "ÑĤ"
      ],
      [
        "ĠÐĿ",
        "Ðµ"
      ],
      [
        "ÑĪÐ¸",
        "ÑģÑĮ"
      ],
      [
        "ĠÐĳ",
        "ÐµÑĢÐ»Ð¸"
      ],
      [
        "ĠÐ¶",
        "Ðµ"
      ],
      [
        "ĠÐ¶",
        "ÐµÐ½"
      ],
      [
        "ÑĥÑİ",
        "Ñī"
      ],
      [
        "ĠÐ¾ÑĤÐºÑĢ",
        "ÑĭÐ»"
      ],
      [
        "ĠÐ»Ñİ",
        "Ð±"
      ],
      [
        "ĠÐ²Ð¾Ð´",
        "ÐºÐ¸"
      ],
      [
        "Ð",
        "¢"
      ],
      [
        "Ð",
        "¯"
      ],
      [
        "ĠÐ",
        "ķ"
      ],
      [
        "ĠÐ",
        "Ĺ"
      ],
      [
        "Ð¾",
        "p"
      ],
      [
        "Ðµ",
        "ÐºÑĢ"
      ],
      [
        "ÑĤ",
        "Ñİ"
      ],
      [
        "ÑĤ",
        "Ð¾Ð±"
      ],
      [
        "ÑĢ",
        "Ð°Ñģ"
      ],
      [
        "Ð½",
        "ÐºÐ¸"
      ],
      [
        "Ñĥ",
        "Ð»"
      ],
      [
        "Ñĥ",
        "Ðº"
      ],
      [
        "ĠÑģ",
        "ÐµÐºÑĢ"
      ],
      [
        "Ð¼",
        "Ð¾ÑĪ"
      ],
      [
        "ĠÐ½",
        "ÐµÐ³Ð¾"
      ],
      [
        "Ð°Ð»",
        "Ð¾"
      ],
      [
        "ĠÐº",
        "Ð°ÑĢ"
      ],
      [
        "ĠÐ´",
        "Ð¾Ðº"
      ],
      [
        "Ð¾Ð²",
        "Ð°ÑĤÑĮ"
      ],
      [
        "ĠÐ·",
        "Ð°Ð´"
      ],
      [
        "Ð¿",
        "Ð¿"
      ],
      [
        "ĠÐ±",
        "Ð°ÑĢ"
      ],
      [
        "ĠÐ¼",
        "Ð½Ðµ"
      ],
      [
        "ĠÑĤ",
        "Ñĭ"
      ],
      [
        "Ð¸ÑĤ",
        "Ð»ÐµÑĢ"
      ],
      [
        "Ð¸ÑĤ",
        "ÐµÐ»ÑĮ"
      ],
      [
        "Ð°ÑĢ",
        "Ð¸"
      ],
      [
        "Ð³",
        "ÑĢ"
      ],
      [
        "ĠÐ»",
        "Ð¸"
      ],
      [
        "Ð°ÐµÑĤ",
        "ÑģÑı"
      ],
      [
        "ĠÐµ",
        "ÑīÐµ"
      ],
      [
        "ÑĢÑĥ",
        "Ð¶"
      ],
      [
        "ÐºÐ°",
        "Ñı"
      ],
      [
        "Ð½Ð°",
        "Ñĩ"
      ],
      [
        "ĠÑĪ",
        "ÑĤ"
      ],
      [
        "ĠÐĶ",
        "Ð°"
      ],
      [
        "ĠÐĶ",
        "Ð²ÐµÑĢÑĮ"
      ],
      [
        "Ð»Ñİ",
        "Ñĩ"
      ],
      [
        "ĠÑģÐµÐ¹ÑĦ",
        "Ð°"
      ],
      [
        "ĠÐŁÐ»ÐµÐ¹ÑĪ",
        "Ð½ÐµÑĢ"
      ],
      [
        "ĠÑĩÐµÑĢ",
        "ÐµÐ·"
      ],
      [
        "ĠÐ³Ð°Ð·",
        "ÐµÑĤ"
      ],
      [
        "ĠÐ»ÐµÑģ",
        "Ñĥ"
      ],
      [
        "ÑİÑĢ",
        "ÐµÑĢ"
      ],
      [
        "ĠÐ³Ð»",
        "Ð°Ð·"
      ],
      [
        "ÑĤÑİ",
        "Ð³"
      ],
      [
        "ĠÑģÐµÐºÑĢ",
        "ÐµÑĤ"
      ],
      [
        "ĠÐ´Ð¾Ðº",
        "ÑĥÐ¼"
      ],
      [
        "Ð",
        "ĺ"
      ],
      [
        "Ġ",
        "ÑĨ"
      ],
      [
        "ĠÐ",
        "¦"
      ],
      [
        "Ð¸",
        "Ð·Ð½"
      ],
      [
        "ÑĢ",
        "Ñı"
      ],
      [
        "ÑĢ",
        "Ñĭ"
      ],
      [
        "Ñģ",
        "Ð»Ð¸"
      ],
      [
        "Ñģ",
        "ÐºÐ¸Ð¹"
      ],
      [
        "Ðº",
        "Ð»ÑİÑĩ"
      ],
      [
        "ĠÐ¿",
        "Ð¸ÑĪ"
      ],
      [
        "ÑĤÐ¸",
        "Ð²"
      ],
      [
        "ĠÑģ",
        "Ð¾Ð²ÐµÑĤ"
      ],
      [
        "ĠÐ²",
        "Ð°Ñģ"
      ],
      [
        "ĠÐ²",
        "Ð¸Ð´"
      ],
      [
        "ĠÐ²",
        "ÑģÑĤÑĢÐµ"
      ],
      [
        "ĠÐ²",
        "Ð¾ÑĪÐµÐ»"
      ],
      [
        "Ð¼",
        "ÐµÐ½"
      ],
      [
        "Ð´",
        "Ð¾Ð¼"
      ],
      [
        "ÐµÑĢ",
        "ÐµÐ²"
      ],
      [
        "ĠÐ´",
        "Ð¾"
      ],
      [
        "ĠÐ´",
        "Ð°Ð»"
      ],
      [
        "ĠÐ´",
        "Ð¾Ð³"
      ],
      [
        "ĠÑĥ",
        "ÑģÐ»"
      ],
      [
        "ĠÑĥ",
        "ÑĤÑİÐ³"
      ],
      [
        "ĠÐ·",
        "Ð°Ð±"
      ],
      [
        "ĠÐ±",
        "ÐµÐ·"
      ],
      [
        "ĠÐ¿Ð¾",
        "Ñĩ"
      ],
      [
        "Ð¸Ð»",
        "ÑĮ"
      ],
      [
        "Ð¸Ð»",
        "Ð¾ÑģÑĮ"
      ],
      [
        "ĠÐ½Ð°",
        "Ñģ"
      ],
      [
        "ĠÐ¼",
        "Ð¾"
      ],
      [
        "Ð¸ÑĤ",
        "Ð°Ð»"
      ],
      [
        "Ð·",
        "ÑĭÐ²Ð°ÐµÑĤ"
      ],
      [
        "ĠÐ¿ÑĢ",
        "Ð¸Ð´"
      ],
      [
        "Ð¾Ñģ",
        "ÑĤÐ¸"
      ],
      [
        "ÑĦ",
        "Ðµ"
      ],
      [
        "Ð°Ð¼",
        "Ð¼"
      ],
      [
        "ĠÐ³",
        "ÑĢÑĥ"
      ],
      [
        "ĠÐĴ",
        "Ð´ÑĢÑĥÐ³"
      ],
      [
        "ĠÐ²Ñĭ",
        "Ð¿"
      ],
      [
        "Ð°ÐµÑĤ",
        "Ðµ"
      ],
      [
        "ÐµÐ¼",
        "Ñı"
      ],
      [
        "ÐµÑģ",
        "ÑĮ"
      ],
      [
        "ĠÐ¿Ð¾Ð",
        "±"
      ],
      [
        "ĠÐĿ",
        "Ñĥ"
      ],
      [
        "ÑĤÑĢ",
        "Ð°"
      ],
      [
        "ĠÐ°",
        "Ð²"
      ],
      [
        "Ð°Ð½Ð¸",
        "Ñı"
      ],
      [
        "ĠÐŀ",
        "Ð½"
      ],
      [
        "ĠÐĵ",
        "Ð¸ÑĤÐ»ÐµÑĢ"
      ],
      [
        "ĠÐľ",
        "Ð¾ÑģÐº"
      ],
      [
        "ÑģÐº",
        "Ð¾Ð¹"
      ],
      [
        "Ð¾Ð»ÑĮ",
        "ÐºÐ¾"
      ],
      [
        "ĠÐºÐ°Ð±Ð¸Ð½ÐµÑĤ",
        "Ðµ"
      ],
      [
        "ĠÐ¿Ð¾Ð¿",
        "ÑĢ"
      ],
      [
        "ĠÐĳÐ¾ÑĢÐ¼Ð°Ð½",
        "Ð°"
      ],
      [
        "ĠÑĥÐ¿",
        "Ð°Ð»"
      ],
      [
        "ÑģÑĤÑĢÐµ",
        "Ð»Ð¸"
      ],
      [
        "ĠÐ¿Ð¾Ð»",
        "ÑĥÑĩ"
      ],
      [
        "ĠÐ»Ñİ",
        "Ð´Ð¸"
      ],
      [
        "ĠÑĢÑĥÑģÑģ",
        "ÐºÐ¸Ð¹"
      ],
      [
        "ĠÐ´Ð¾Ð¼",
        "Ð°"
      ],
      [
        "ĠÑĪÐ¸",
        "ÑĦ"
      ],
      [
        "ÑĩÐµÑĢ",
        "ÐµÐ´"
      ],
      [
        "ĠÑĥÐ´",
        "Ð¸Ð²"
      ],
      [
        "ĠÑĤÑĢÑĥ",
        "Ñģ"
      ],
      [
        "ĠÐ³ÐµÑģÑĤÐ°Ð¿",
        "Ð¾"
      ],
      [
        "ĠÐŃ",
        "ÑĤÐ¾"
      ],
      [
        "ĠÐ²ÑĢ",
        "ÐµÐ¼Ñı"
      ],
      [
        "ĠÑĤÑĥ",
        "Ð°Ð»"
      ],
      [
        "ĠÐ¡ÑĤ",
        "Ð°Ð»Ð¸"
      ],
      [
        "ĠÐ¿Ð¸ÑĪ",
        "ÐµÑĤ"
      ],
      [
        "ĠÐ´Ð¾Ð³",
        "Ð°Ð´"
      ],
      [
        "Ð¾",
        "Ðµ"
      ],
      [
        "Ð¸",
        "Ð¹"
      ],
      [
        "Ð¸",
        "ÑģÑĮ"
      ],
      [
        "ÑĢ",
        "Ð¸"
      ],
      [
        "ÑĢ",
        "Ð¾Ð½"
      ],
      [
        "Ñģ",
        "Ð½"
      ],
      [
        "Ð½",
        "Ñı"
      ],
      [
        "Ñĥ",
        "ÑĪ"
      ],
      [
        "Ðº",
        "Ð¾Ð¼"
      ],
      [
        "Ð²",
        "Ð°ÑĢ"
      ],
      [
        "Ð²",
        "Ð°Ð¹"
      ],
      [
        "ĠÐ¿",
        "Ð»"
      ],
      [
        "ĠÐ¿",
        "Ð°ÑĢ"
      ],
      [
        "ĠÑģ",
        "Ð°Ð´"
      ],
      [
        "ĠÑģ",
        "Ð¸Ð´ÐµÐ»"
      ],
      [
        "ĠÐ²",
        "Ð°ÑĪ"
      ],
      [
        "Ñĭ",
        "Ðµ"
      ],
      [
        "Ñĭ",
        "Ð¼"
      ],
      [
        "Ñĩ",
        "Ð°"
      ],
      [
        "Ñĩ",
        "Ð½Ð¾"
      ],
      [
        "Ð´",
        "ÐµÐ»"
      ],
      [
        "ĠÐ½",
        "Ð¸"
      ],
      [
        "ĠÐ¸",
        "ÑģÐ¿"
      ],
      [
        "ĠÐ¾",
        "Ð¿ÑıÑĤÑĮ"
      ],
      [
        "ĠÐ¾",
        "ÑĩÐµÑĢÐµÐ´"
      ],
      [
        "ĠÐº",
        "Ð¾Ð»"
      ],
      [
        "ĠÐº",
        "Ð²Ð°ÑĢ"
      ],
      [
        "ÐµÐ»",
        "Ñı"
      ],
      [
        "ĠÐ´",
        "Ð°Ð²"
      ],
      [
        "ĠÐ´",
        "Ð»Ñı"
      ],
      [
        "Ñħ",
        "Ð¾Ð¶"
      ],
      [
        "ÐµÐ½",
        "ÑĦ"
      ],
      [
        "ÐµÐ½",
        "Ð½Ð¾"
      ],
      [
        "ĠÐ·",
        "Ð´"
      ],
      [
        "ĠÐ±",
        "Ð¾Ð»ÑĮ"
      ],
      [
        "Ð°Ð½",
        "Ðµ"
      ],
      [
        "Ð°Ð½",
        "ÑĮ"
      ],
      [
        "ĠÐ¿Ð¾",
        "Ð½ÑıÐ»"
      ],
      [
        "ĠÐ½Ð°",
        "Ñĩ"
      ],
      [
        "ĠÐ¼",
        "Ð¸Ð¼Ð¾"
      ],
      [
        "ĠÑĤ",
        "Ð°Ð¼"
      ],
      [
        "Ð±",
        "ÐµÑĢÐ³"
      ],
      [
        "ĠÐ¿ÑĢ",
        "Ð¾Ð¼"
      ],
      [
        "ĠÐ¿ÑĢ",
        "Ð¾Ð²Ð°Ð»"
      ],
      [
        "ĠÐ¿Ð¾Ð´",
        "Ð¾ÑĪÐµÐ»"
      ],
      [
        "Ð¾ÑĢ",
        "Ñĥ"
      ],
      [
        "Ð¸Ð½",
        "Ñĥ"
      ],
      [
        "Ð¸Ð´",
        "Ð¾ÑĢÑĥ"
      ],
      [
        "Ð°Ð¼",
        "Ð²Ð°Ð¹"
      ],
      [
        "ĠÐ³",
        "Ð´Ðµ"
      ],
      [
        "ĠÐ³",
        "Ð¾Ð²Ð¾ÑĢ"
      ],
      [
        "ĠÐ²Ñĭ",
        "Ð·ÑĭÐ²Ð°ÐµÑĤ"
      ],
      [
        "Ð³",
        "Ð»Ñı"
      ],
      [
        "ÐµÐ¹",
        "ÑģÑĤÐ²"
      ],
      [
        "ÐºÑĥ",
        "Ñİ"
      ],
      [
        "ĠÐ»",
        "ÐµÑĤ"
      ],
      [
        "ĠÐ»",
        "Ð¸ÑĪ"
      ],
      [
        "ĠÐ¿Ð¾Ð",
        "¶"
      ],
      [
        "ĠÑĢÐ°Ð·",
        "Ð±"
      ],
      [
        "Ð°Ð±",
        "Ð¾ÑĤ"
      ],
      [
        "Ð¾Ð±",
        "Ð¾Ð²Ð°Ð»"
      ],
      [
        "ĠÑģÐ²",
        "ÐµÑĤ"
      ],
      [
        "ĠÐ¾Ð±",
        "ÑĬ"
      ],
      [
        "ÑĢÐµ",
        "Ñħ"
      ],
      [
        "ÑıÐ»",
        "ÑģÑı"
      ],
      [
        "ÑħÐ¾Ð´",
        "Ð¸ÑĤÑĮ"
      ],
      [
        "ĠÐ¨",
        "ÐµÐ»"
      ],
      [
        "ĠÐł",
        "Ð¾Ð´Ð¸Ð½"
      ],
      [
        "Ð°Ð¹",
        "ÑĤÐµ"
      ],
      [
        "ĠÑĦ",
        "Ð¾Ð½"
      ],
      [
        "Ð°Ð½Ð¸",
        "Ðµ"
      ],
      [
        "ÑĭÐ²Ð°ÐµÑĤ",
        "ÑģÑı"
      ],
      [
        "Ð»Ð¾",
        "Ñħ"
      ],
      [
        "ĠÐ¼Ð°ÑĪÐ¸Ð½",
        "Ñĥ"
      ],
      [
        "ĠÑģÑĤÐ¾",
        "Ð»"
      ],
      [
        "ĠÐ§",
        "ÑĤÐ¾"
      ],
      [
        "ÐµÐ½ÑĤ",
        "Ñĭ"
      ],
      [
        "ĠÑĢÐ°Ð´",
        "Ð¸ÑģÑĤ"
      ],
      [
        "Ð¾Ð¼Ð½",
        "Ð¸Ð»"
      ],
      [
        "Ð°Ñİ",
        "ÑĤ"
      ],
      [
        "ĠÑģÐ»ÐµÐ´",
        "ÑĥÑİÑī"
      ],
      [
        "ĠÐºÐ¾ÑĢ",
        "Ð¸Ð´Ð¾ÑĢÑĥ"
      ],
      [
        "ĠÐ¿Ð¾Ð·",
        "Ð²Ð¾Ð½"
      ],
      [
        "ĠÐĳÐµÑĢÐ»Ð¸",
        "Ð½Ñĥ"
      ],
      [
        "ĠÐ¾ÑĤÐºÑĢÑĭÐ»",
        "Ð°ÑģÑĮ"
      ],
      [
        "ĠÐľÐ¾ÑģÐº",
        "Ð²"
      ],
      [
        "ĠÐ¿Ð¾Ð¿ÑĢ",
        "Ð¾Ð±Ð¾Ð²Ð°Ð»"
      ],
      [
        "ĠÐ´Ð¾Ð³Ð°Ð´",
        "Ð°Ð»ÑģÑı"
      ],
      [
        "ĠÐºÐ²Ð°ÑĢ",
        "ÑĤÐ¸ÑĢ"
      ],
      [
        "Ð",
        "£"
      ],
      [
        "Ð",
        "ķ"
      ],
      [
        "Ġ",
        "p"
      ],
      [
        "Ġ",
        "ÑħÐ¾Ð´Ð¸ÑĤÑĮ"
      ],
      [
        "Ð°",
        "ÑĤÐ¸"
      ],
      [
        "Ð°",
        "ÐµÐ²"
      ],
      [
        "Ð¸",
        "Ðµ"
      ],
      [
        "Ð¸",
        "Ð¾Ð½"
      ],
      [
        "Ð¸",
        "Ð°Ð½Ð¸"
      ],
      [
        "Ðµ",
        "Ð»Ð¸"
      ],
      [
        "Ð»",
        "Ð°Ð´"
      ],
      [
        "Ð»",
        "ÐµÐ½Ð¸Ðµ"
      ],
      [
        "Ð»",
        "ÐºÐ½ÑĥÐ»"
      ],
      [
        "ÑĢ",
        "ÐµÐ´"
      ],
      [
        "ÑĢ",
        "Ð°Ð»ÑģÑı"
      ],
      [
        "Ñģ",
        "Ð°ÐµÐ²"
      ],
      [
        "Ð½",
        "Ð¸Ð¼"
      ],
      [
        "Ð²",
        "Ð°Ð½"
      ],
      [
        "Ð²",
        "ÐºÐ°"
      ],
      [
        "ĠÐ¿",
        "Ð¾Ð¼"
      ],
      [
        "ĠÐ¿",
        "Ð¾Ð²"
      ],
      [
        "ĠÐ¿",
        "Ð¸Ð²"
      ],
      [
        "ÑĨ",
        "ÐµÐ²"
      ],
      [
        "Ð°Ð",
        "³Ð¾"
      ],
      [
        "ĠÑģ",
        "ÐµÐ»"
      ],
      [
        "ĠÑģ",
        "Ð°Ð¼"
      ],
      [
        "ĠÐ²",
        "Ð¸Ð»"
      ],
      [
        "ĠÐ²",
        "Ð°Ð¼"
      ],
      [
        "ĠÐ²",
        "Ð´ÑĢÑĥÐ³"
      ],
      [
        "Ñĭ",
        "ÑĤÑĮ"
      ],
      [
        "Ñĩ",
        "Ð°Ñģ"
      ],
      [
        "Ð´",
        "Ñı"
      ],
      [
        "ĠÐ½",
        "Ð¸Ðº"
      ],
      [
        "Ð°Ð»",
        "Ð°ÑģÑĮ"
      ],
      [
        "ÐµÑĢ",
        "Ð¸"
      ],
      [
        "ĠÐ¾",
        "ÑģÑĤ"
      ],
      [
        "ĠÐº",
        "Ñĥ"
      ],
      [
        "ĠÐº",
        "Ð°Ð½"
      ],
      [
        "ĠÐº",
        "Ð¸ÑĢ"
      ],
      [
        "Ð¾Ð´",
        "Ñĥ"
      ],
      [
        "ĠÐ´",
        "ÑĥÐ¼Ð°Ð»"
      ],
      [
        "ĠÐ´",
        "ÐµÐ²"
      ],
      [
        "ĠÐ´",
        "Ð²ÐµÑĢ"
      ],
      [
        "ĠÐ´",
        "ÐµÐ½ÑĮ"
      ],
      [
        "ĠÐ´",
        "ÐµÐ¹ÑģÑĤÐ²"
      ],
      [
        "ĠÑĥ",
        "Ð»Ð¸ÑĨ"
      ],
      [
        "ĠÑĥ",
        "Ð±"
      ],
      [
        "ÐµÐ½",
        "Ð°"
      ],
      [
        "ÐµÐ½",
        "Ñĭ"
      ],
      [
        "Ð¾Ð²",
        "ÐµÐ´"
      ],
      [
        "Ð¿",
        "Ð¸Ñĩ"
      ],
      [
        "ÑģÑĤ",
        "ÐºÐ°"
      ],
      [
        "ĠÑĢ",
        "ÐµÑĪ"
      ],
      [
        "Ð°Ð½",
        "ÑĤ"
      ],
      [
        "Ð°Ð½",
        "Ð½Ð¾"
      ],
      [
        "ĠÐ¿Ð¾",
        "ÑĤÐ¾Ð¼"
      ],
      [
        "Ð¸Ð»",
        "Ð°"
      ],
      [
        "Ð¨ÑĤÐ¸ÑĢÐ»Ð¸ÑĨ",
        "Ñĥ"
      ],
      [
        "ĠÐ½Ð°",
        "ÑĤ"
      ],
      [
        "ĠÐ½Ð°",
        "Ðº"
      ],
      [
        "ĠÐ½Ð°",
        "ÑĥÑĩ"
      ],
      [
        "ĠÐ¼",
        "ÐµÐ»"
      ],
      [
        "ĠÐ¼",
        "Ð¸Ð½"
      ],
      [
        "ĠÐ¼",
        "Ð¾Ð¶"
      ],
      [
        "ĠÑĤ",
        "ÐµÐ±"
      ],
      [
        "Ð¸ÑĤ",
        "ÑģÑı"
      ],
      [
        "ÑĦ",
        "Ð¸"
      ],
      [
        "ÑĦ",
        "ÐµÑģ"
      ],
      [
        "ĠÐ¿Ð¾Ð´",
        "ÑĬ"
      ],
      [
        "ĠÑĩ",
        "ÐµÐ¼"
      ],
      [
        "ĠÑĩ",
        "ÑĤÐ¾Ð±"
      ],
      [
        "Ð¾ÑĢ",
        "Ð°"
      ],
      [
        "ĠÐ³",
        "Ð°ÑĢ"
      ],
      [
        "Ð¾Ð»",
        "Ð¾Ñģ"
      ],
      [
        "ĠÐĴ",
        "Ð°Ñģ"
      ],
      [
        "ĠÐĴ",
        "Ð°ÑĪÐ¸"
      ],
      [
        "ĠÐ²Ñĭ",
        "ÑģÑĤÑĢÐµÐ»Ð¸"
      ],
      [
        "Ð³",
        "Ð»"
      ],
      [
        "ĠÐ¾ÑĤ",
        "Ð¿"
      ],
      [
        "Ð½Ñĥ",
        "Ð²"
      ],
      [
        "ĠÐµ",
        "Ð²"
      ],
      [
        "ĠÐ¾Ð½",
        "Ð°"
      ],
      [
        "ĠÑĤÐ¾",
        "Ð»ÐºÐ½ÑĥÐ»"
      ],
      [
        "ÑĭÐ²",
        "Ð°Ñı"
      ],
      [
        "ĠÑį",
        "ÑĤ"
      ],
      [
        "Ð»Ðµ",
        "ÑĨ"
      ],
      [
        "ĠÐ±ÑĭÐ»",
        "Ð°"
      ],
      [
        "ĠÐĺ",
        "ÑģÐ°ÐµÐ²"
      ],
      [
        "Ð¸Ñĩ",
        "ÐµÐ³Ð¾"
      ],
      [
        "ĠÐ¿ÑĢÐ¸",
        "ÑħÐ¾Ð¶"
      ],
      [
        "ĠÐ¾Ðº",
        "Ð½Ð°"
      ],
      [
        "ĠÑĤÑĢ",
        "ÐµÑĤÑĮ"
      ],
      [
        "ĠÑĤÑĢ",
        "Ð°Ð¼Ð²Ð°Ð¹"
      ],
      [
        "ÐµÐ¶",
        "Ð°Ð»"
      ],
      [
        "ĠÑģÐ²Ð¾",
        "ÐµÐ¹"
      ],
      [
        "ÐĿ",
        "Ð°"
      ],
      [
        "ĠÐ¿Ð¾Ð»",
        "Ð¾Ð¶"
      ],
      [
        "Ð»Ð°",
        "Ñĩ"
      ],
      [
        "Ð½Ð¾Ð¼",
        "Ñĥ"
      ],
      [
        "ÐµÑħ",
        "Ð°Ð»"
      ],
      [
        "ĠÐºÑĢ",
        "Ð¸Ðº"
      ],
      [
        "ÑģÑĤÑĮ",
        "Ñİ"
      ],
      [
        "Ð¨",
        "ÑĤÐ¸pÐ»Ð¸ÑĨ"
      ],
      [
        "ĠÐ¿ÑĢÐ¾",
        "ÑĦÐµÑģ"
      ],
      [
        "ĠÑıÐ²",
        "ÐºÐ°"
      ],
      [
        "ĠÐ¾Ð´",
        "Ð¸Ð½"
      ],
      [
        "ĠÐ½Ð°Ð´",
        "Ð¾"
      ],
      [
        "ĠÐ·Ð°Ð¼",
        "Ðµ"
      ],
      [
        "!!",
        "!"
      ],
      [
        "Ġ1",
        "0"
      ],
      [
        "ÑĭÑĪ",
        "Ð°Ð»"
      ],
      [
        "ĠÐºÐ¾",
        "ÑĤÐ¾ÑĢ"
      ],
      [
        "ĠÐ´Ð²",
        "Ð°"
      ],
      [
        "ĠÐ³Ð¾Ð»Ð¾Ð²",
        "Ðµ"
      ],
      [
        "ĠÐ³Ð¾Ð»Ð¾Ð²",
        "Ñĥ"
      ],
      [
        "ĠÐ±ÑĢ",
        "Ð°Ð»Ð¸"
      ],
      [
        "ĠÐ»ÑİÐ±",
        "Ð¸Ð»"
      ],
      [
        "Ð¯",
        "Ð²ÐºÐ°"
      ],
      [
        "Ð¸ÑĤÐµÐ»ÑĮ",
        "Ð½Ð¾"
      ],
      [
        "ĠÑĪÑĤ",
        "Ð¾Ð¿"
      ],
      [
        "ĠÐ³Ð»Ð°Ð·",
        "Ð°"
      ],
      [
        "ĠÐ´Ð¾ÐºÑĥÐ¼",
        "ÐµÐ½ÑĤÑĭ"
      ],
      [
        "ĠÐ²ÑģÑĤÑĢÐµ",
        "ÑĩÑĥ"
      ],
      [
        "ĠÑĥÑģÐ»",
        "ÑĭÑĪÐ°Ð»"
      ],
      [
        "ĠÐ¿Ð¾Ñĩ",
        "ÐµÐ¼Ñĥ"
      ],
      [
        "ĠÐ³ÑĢÑĥ",
        "Ð¿Ð¿"
      ],
      [
        "ĠÐĵÐ¸ÑĤÐ»ÐµÑĢ",
        "Ð°"
      ],
      [
        "ĠÑĪÐ¸ÑĦ",
        "ÑĢÐ¾Ð²"
      ],
      [
        "ĠÑĥÐ´Ð¸Ð²",
        "Ð»ÐµÐ½"
      ],
      [
        "ĠÑĤÑĥÐ°Ð»",
        "ÐµÑĤ"
      ],
      [
        "ÐµÐ½ÑĦ",
        "ÑİÑĢÐµÑĢ"
      ],
      [
        "ĠÐ·Ð´",
        "ÐµÑģÑĮ"
      ],
      [
        "ĠÐ¿ÑĢÐ¾Ð²Ð°Ð»",
        "ÐµÐ½Ð°"
      ],
      [
        "ĠÐ³Ð¾Ð²Ð¾ÑĢ",
        "Ð¸ÑĤ"
      ],
      [
        "ĠÐľÐ¾ÑģÐºÐ²",
        "Ñĥ"
      ],
      [
        "Ð¸Ð°Ð½Ð¸",
        "ÑģÑĤÐºÐ°"
      ],
      [
        "ĠÐºÐ¸ÑĢ",
        "Ð¿Ð¸Ñĩ"
      ],
      [
        "ĠÑĩÑĤÐ¾Ð±",
        "Ñĭ"
      ],
      [
        "ĠÐ³Ð°ÑĢ",
        "Ð¼Ð¾ÑĪ"
      ],
      [
        "ĠÐ¿ÑĢÐ¸ÑħÐ¾Ð¶",
        "Ð°Ð½"
      ],
      [
        "ĠÐ¿ÑĢÐ¾ÑĦÐµÑģ",
        "Ñģ"
      ],
      [
        ".",
        "Â»"
      ],
      [
        "Ð",
        "§"
      ],
      [
        "Ð",
        "ľ"
      ],
      [
        "Ġ",
        "3"
      ],
      [
        "Ġ",
        "8"
      ],
      [
        "ĠÐ",
        "¥"
      ],
      [
        "ĠÐ",
        "ĸ"
      ],
      [
        "Ð¾",
        "Ð»Ð¸"
      ],
      [
        "Ð¾",
        "ÑģÑĤ"
      ],
      [
        "Ð°",
        "ÑģÑĤ"
      ],
      [
        "Ðµ",
        "ÑģÑı"
      ],
      [
        "Ð»",
        "ÐµÐ´"
      ],
      [
        "ÑĤ",
        "ÑģÑı"
      ],
      [
        "ÑĢ",
        "Ð¾Ð´"
      ],
      [
        "ÑĢ",
        "Ð¾Ð¼"
      ],
      [
        "Ñģ",
        "Ð¾Ð²"
      ],
      [
        "Ñģ",
        "ÐºÐ¸"
      ],
      [
        "Ð½",
        "Ð¸ÑĤ"
      ],
      [
        "Ð½",
        "Ð°ÑĢ"
      ],
      [
        "Ð½",
        "Ð°Ñı"
      ],
      [
        "Ð½",
        "ÐµÐ¼Ñĥ"
      ],
      [
        "Ñĥ",
        "ÐµÑĤÑģÑı"
      ],
      [
        "Ð²",
        "Ð¾"
      ],
      [
        "Ð²",
        "Ñĭ"
      ],
      [
        "Ð²",
        "ÐµÐ¹"
      ],
      [
        "Ð»Ð¸",
        "Ñĩ"
      ],
      [
        "ĠÐ¿",
        "Ð»Ðµ"
      ],
      [
        "ĠÐ¿",
        "ÑıÑĤÑĮ"
      ],
      [
        "ĠÐ¿",
        "ÑĮÑı"
      ],
      [
        "ĠÐ¿",
        "Ð»Ð¾Ñħ"
      ],
      [
        "ĠÐ¿",
        "Ð¸Ð°Ð½Ð¸ÑģÑĤÐºÐ°"
      ],
      [
        "ÑĨ",
        "Ðµ"
      ],
      [
        "ÑĨ",
        "Ñĥ"
      ],
      [
        "ÑĨ",
        "Ð°ÑĢÐ¸"
      ],
      [
        "Ñı",
        "Ð´Ð¾Ð¼"
      ],
      [
        "Ñı",
        "ÑģÐ½"
      ],
      [
        "ĠÑģ",
        "ÑĥÐ±"
      ],
      [
        "ĠÑģ",
        "ÑĥÐº"
      ],
      [
        "ĠÑģ",
        "Ð¸Ð»ÑĮ"
      ],
      [
        "ĠÑģ",
        "Ð´ÐµÐ»"
      ],
      [
        "ĠÐ²",
        "ÐµÑĢ"
      ],
      [
        "ĠÐ²",
        "ÑĩÐµÑĢ"
      ],
      [
        "Ñĭ",
        "ÑĤ"
      ],
      [
        "Ñĭ",
        "Ñħ"
      ],
      [
        "Ñĭ",
        "Ð¶"
      ],
      [
        "¨ÑĤÐ¸ÑĢ",
        "Ð»ÐµÑĨ"
      ],
      [
        "Ð´",
        "Ð°Ð»ÑģÑı"
      ],
      [
        "ĠÐ½",
        "ÐµÐ·"
      ],
      [
        "ĠÐ½",
        "Ð¾Ñĩ"
      ],
      [
        "ÐµÑĢ",
        "ÑĤ"
      ],
      [
        "ÐµÑĢ",
        "Ñĥ"
      ],
      [
        "ÐµÑĢ",
        "Ðº"
      ],
      [
        "ÐµÑĢ",
        "ÑĮ"
      ],
      [
        "ÐµÑĢ",
        "ÐµÐ³"
      ],
      [
        "ÑĪ",
        "Ð»Ð°"
      ],
      [
        "ĠÐ¸",
        "Ð¼"
      ],
      [
        "ĠÐ¸",
        "Ð´"
      ],
      [
        "ĠÐ¸",
        "Ñħ"
      ],
      [
        "ĠÐ¸",
        "Ð³ÑĢ"
      ],
      [
        "ĠÐ¾",
        "ÑĦÐ¸"
      ],
      [
        "ĠÐº",
        "Ð°"
      ],
      [
        "ĠÐº",
        "Ð°Ð´"
      ],
      [
        "ĠÐº",
        "Ð¾Ð¿"
      ],
      [
        "ÐµÐ»",
        "Ð¾"
      ],
      [
        "ĠÐ´",
        "Ð¾Ð»"
      ],
      [
        "ĠÐ´",
        "ÑĥÑĢ"
      ],
      [
        "ĠÐ´",
        "Ð°Ð»Ð°"
      ],
      [
        "ĠÐ´",
        "ÐµÑĢÐµÐ²"
      ],
      [
        "Ñħ",
        "Ð°Ð»"
      ],
      [
        "ĠÑĥ",
        "Ð·"
      ],
      [
        "Ð¾Ð¼",
        "Ñĥ"
      ],
      [
        "ÐµÐ½",
        "ÑĤÑĢÐ°"
      ],
      [
        "ÐµÐ½",
        "Ð±ÐµÑĢÐ³"
      ],
      [
        "Ð¾Ð²",
        "Ð¸Ñĩ"
      ],
      [
        "ĠÐ·",
        "Ð°Ð½"
      ],
      [
        "ĠÐ·",
        "Ð°Ð²"
      ],
      [
        "ÑģÑĤ",
        "Ð°Ð»"
      ],
      [
        "ĠÑĢ",
        "Ð°Ð±Ð¾ÑĤ"
      ],
      [
        "ĠÐ±",
        "ÑĥÐ¼"
      ],
      [
        "ĠÐ±",
        "ÑĥÑĤ"
      ],
      [
        "ĠÐ±",
        "ÐµÑĢÐµÐ³"
      ],
      [
        "Ð°Ð½",
        "Ð¾"
      ],
      [
        "Ð°Ð½",
        "Ð´"
      ],
      [
        "ĠÐ¿Ð¾",
        "ÑĪÐµÐ»"
      ],
      [
        "ĠÐ¿Ð¾",
        "ÑĤÑĢ"
      ],
      [
        "ĠÐ¿Ð¾",
        "Ð»ÑĮ"
      ],
      [
        "Ð¸Ð»",
        "Ð°ÑģÑĮ"
      ],
      [
        "ĠÐ¼",
        "Ð½Ð¾Ð¹"
      ],
      [
        "Ð°Ð·",
        "Ð´"
      ],
      [
        "Ð°Ð·",
        "ÑĭÐ²Ð°ÐµÑĤ"
      ],
      [
        "ĠÑĤ",
        "Ð¾Ð¶"
      ],
      [
        "Ð·",
        "Ð°"
      ],
      [
        "Ð±",
        "Ñĥ"
      ],
      [
        "Ð±",
        "Ð°Ñģ"
      ],
      [
        "Ð±",
        "Ð¾ÑĤ"
      ],
      [
        "ĠÐ¿ÑĢ",
        "Ð¾Ð´"
      ],
      [
        "ĠÐ¿ÑĢ",
        "Ð¾Ð²"
      ],
      [
        "ĠÐ¿ÑĢ",
        "Ð¾Ñģ"
      ],
      [
        "ĠÐ¿ÑĢ",
        "Ð¸Ðº"
      ],
      [
        "ĠÐ¿ÑĢ",
        "Ð¾Ð±"
      ],
      [
        "Ð¾Ñģ",
        "Ñģ"
      ],
      [
        "ĠÐ¿Ð¾Ð´",
        "Ð½ÑıÐ»"
      ],
      [
        "Ð°Ðº",
        "Ð¾Ð¼"
      ],
      [
        "Ð°Ðº",
        "ÑĤÐµÑĢ"
      ],
      [
        "ĠÑĩ",
        "Ð°Ñģ"
      ],
      [
        "ĠÑĩ",
        "Ð¸Ñģ"
      ],
      [
        "ĠÑĩ",
        "Ð¸ÑĤÐ°Ð»"
      ],
      [
        "Ð¾ÑĢ",
        "Ð¾Ðº"
      ],
      [
        "Ð¸Ð½",
        "Ð°"
      ],
      [
        "Ð°ÑĤ",
        "Ð°"
      ],
      [
        "Ð°ÑĤ",
        "ÐµÐ»ÑĮ"
      ],
      [
        "Ð°Ð¼",
        "Ð¿"
      ],
      [
        "Ð¾Ð½",
        "Ñĩ"
      ],
      [
        "Ð¾Ð½",
        "ÐµÑģ"
      ],
      [
        "Ð¾Ð»",
        "Ð¾Ð´"
      ],
      [
        "Ð°ÑĢ",
        "Ð°ÐºÑĤÐµÑĢ"
      ],
      [
        "ĠÐľÑİÐ»Ð»ÐµÑĢ",
        "Ñĥ"
      ],
      [
        "ÐµÐ¹",
        "Ñħ"
      ],
      [
        "ĠÐ»",
        "ÐµÐ²"
      ],
      [
        "Ð¾ÑĤ",
        "Ð¾Ð³"
      ],
      [
        "ĠÐµ",
        "Ð»Ð¸"
      ],
      [
        "ÐµÑģ",
        "ÐºÐ¸"
      ],
      [
        "ĠÐ¡",
        "Ð¾"
      ],
      [
        "ĠÐ¡",
        "Ð°Ð¼"
      ],
      [
        "ĠÐĿ",
        "ÐµÑĤ"
      ],
      [
        "ÑĪÐ¸",
        "Ð¹"
      ],
      [
        "âĢ¦",
        "Â»"
      ],
      [
        "Ð°ÑĤÑĮ",
        "ÑģÑı"
      ],
      [
        "ĠÑģÐ²",
        "Ð¾Ð¹"
      ],
      [
        "ĠÑģÐ²",
        "Ð¸ÑģÑĤ"
      ],
      [
        "ĠÑģÐ²",
        "ÑıÐ·"
      ],
      [
        "ÐµÐ·",
        "Ð´"
      ],
      [
        "ĠÑĤÐ¾",
        "ÑĤ"
      ],
      [
        "ĠÐļ",
        "Ð°Ðº"
      ],
      [
        "Ð¾Ñĩ",
        "ÐºÑĥ"
      ],
      [
        "ĠÑį",
        "ÑĤÐ¾Ð¼"
      ],
      [
        "ĠÐ°",
        "Ð½"
      ],
      [
        "ĠÑģÐ¿",
        "Ð¸Ñģ"
      ],
      [
        "ĠÐ¾Ð±",
        "Ð½Ð°ÑĢ"
      ],
      [
        "ĠÑģÐ»",
        "Ð¾Ð²"
      ],
      [
        "ĠÑģÐ»",
        "ÑĥÑĩ"
      ],
      [
        "ĠÑģÐ»",
        "ÑĥÐ¶"
      ],
      [
        "ĠÑģÐ»",
        "ÐµÐ¿"
      ],
      [
        "ĠÑĪ",
        "Ðµ"
      ],
      [
        "ĠÑĪ",
        "Ð°Ð³"
      ],
      [
        "ĠÐ¨",
        "ÑĤÐ¸pÐ»Ð¸ÑĨ"
      ],
      [
        "ĠÐ²Ñģ",
        "Ñİ"
      ],
      [
        "ĠÐ²Ñģ",
        "Ð¿"
      ],
      [
        "ĠÐł",
        "Ð¾Ð»ÑĮ"
      ],
      [
        "Ð¸Ñģ",
        "ÑĤÐ¸"
      ],
      [
        "Ð¸ÑĤÑĮ",
        "ÑģÑı"
      ],
      [
        "ĠÑĦ",
        "Ð°ÑĪÐ¸"
      ],
      [
        "ĠÐºÐ°Ðº",
        "Ð¸Ð¼"
      ],
      [
        "ĠÐŀ",
        "Ð±"
      ],
      [
        "Ð°Ð¶",
        "ÐµÑĤ"
      ],
      [
        "ĠÑħ",
        "Ð¾ÑĤ"
      ],
      [
        "ĠÐ¾ÑĤÐºÑĢ",
        "ÑĭÐ²Ð°ÐµÑĤÑģÑı"
      ],
      [
        "ĠÐ¿Ð¾Ð¿",
        "Ð°Ð»Ð¸ÑģÑĮ"
      ],
      [
        "ÐµÑĪ",
        "ÑĮ"
      ],
      [
        "ĠÑģÑĤ",
        "Ð°Ðº"
      ],
      [
        "ĠÐ¾Ðº",
        "Ð½Ð¾"
      ],
      [
        "ĠÐ¾Ðº",
        "ÑĢÑĥÐ¶"
      ],
      [
        "ĠÑĤÑĢ",
        "Ð¸"
      ],
      [
        "ĠÑįÑĤÐ¾",
        "ÑĤ"
      ],
      [
        "ĠÐ¼Ð°ÑĪÐ¸Ð½",
        "Ðµ"
      ],
      [
        "ĠÑģÑĤÐ¾",
        "ÑıÐ»"
      ],
      [
        "ĠÐ¿Ð¾Ñģ",
        "Ð»Ðµ"
      ],
      [
        "ĠÐ¿Ð¾Ñģ",
        "Ð¼Ð¾ÑĤÑĢ"
      ],
      [
        "ĠÑģÐ²Ð¾",
        "Ñİ"
      ],
      [
        "ĠÑģÐ²Ð¾",
        "ÐµÐ¼"
      ],
      [
        "ĠÐ¿ÐµÑĢ",
        "ÐµÐ´"
      ],
      [
        "ĠÐ¢",
        "Ð°Ðº"
      ],
      [
        "Ð½Ðµ",
        "Ðµ"
      ],
      [
        "ĠÐ¿Ð°ÑģÑĤÐ¾ÑĢ",
        "Ð°"
      ],
      [
        "ÑĢÐ¾",
        "ÑĤÐ¸Ð²"
      ],
      [
        "ÑĥÐ¶",
        "Ð¸Ð»"
      ],
      [
        "ÑĨÐ¸",
        "Ð¸"
      ],
      [
        "ÑĨÐ¸",
        "Ñİ"
      ],
      [
        "ĠÑģÐµÐ±",
        "Ðµ"
      ],
      [
        "ĠÐºÑĢ",
        "Ð¾Ð¼"
      ],
      [
        "ĠÐ½ÐµÐ¼",
        "ÐµÑĨ"
      ],
      [
        "ĠÐ½ÐµÐ¼",
        "ÑĨÑĭ"
      ],
      [
        "ÐĹ",
        "Ð²Ð¾Ð½"
      ],
      [
        "ĠÑĢÐ°Ñģ",
        "Ðº"
      ],
      [
        "ĠÐ³ÑĢ",
        "Ð°Ð¼Ð¼"
      ],
      [
        "ĠÐ¨Ð»Ð°Ð³",
        "Ð°"
      ],
      [
        "ÐºÐ½ÑĥÐ»",
        "ÑģÑı"
      ],
      [
        "ĠÑģÐ¾Ð±",
        "Ð¾Ð¹"
      ],
      [
        "ĠÑģÐ¸Ð´",
        "Ð¸ÑĤ"
      ],
      [
        "ĠÐ±ÑĥÐ´",
        "ÐµÑĤ"
      ],
      [
        "ĠÐķ",
        "ÑģÐ»Ð¸"
      ],
      [
        "Ð¾Ð²Ð°ÑĤÑĮ",
        "ÑģÑı"
      ],
      [
        "ĠÐ·Ð°Ð´",
        "ÑĥÐ¼Ð°Ð»"
      ],
      [
        "ĠÐ³Ð°Ð·ÐµÑĤ",
        "Ñĥ"
      ],
      [
        "ĠÑģÐµÐºÑĢÐµÑĤ",
        "Ð½ÑĭÐµ"
      ],
      [
        "ĠÐ°Ð²",
        "ÑĤÐ¾Ð¼"
      ],
      [
        "ĠÑĤÑĢÑĥÑģ",
        "Ñĭ"
      ],
      [
        "ĠÐ¿Ð»",
        "Ð°Ðº"
      ],
      [
        "ĠÐ¸ÑģÐ¿",
        "Ð¾Ð²ÐµÐ´"
      ],
      [
        "ĠÐºÐ¾Ð»",
        "Ð±Ð°Ñģ"
      ],
      [
        "ĠÐ±Ð¾Ð»ÑĮ",
        "ÑĪÐµ"
      ],
      [
        "ĠÐ½Ð°Ñĩ",
        "Ð¸Ð½"
      ],
      [
        "ĠÐ¾Ð±ÑĬ",
        "ÑıÐ²"
      ],
      [
        "ĠÑģÐ»ÐµÐ´ÑĥÑİÑī",
        "Ð¸Ð¹"
      ],
      [
        "ĠÐ¿Ð¾Ð·Ð²Ð¾Ð½",
        "Ð¸Ð»"
      ],
      [
        "ĠÐºÐ²Ð°ÑĢÑĤÐ¸ÑĢ",
        "Ñĥ"
      ],
      [
        "ĠÐ½Ð¸Ðº",
        "Ð¾Ð³Ð´Ð°"
      ],
      [
        "ĠÐ´Ð²ÐµÑĢ",
        "Ð¸"
      ],
      [
        "ĠÑĢÐµÑĪ",
        "Ð¸Ð»"
      ],
      [
        "ĠÐ½Ð°ÑĤ",
        "ÐºÐ½ÑĥÐ»ÑģÑı"
      ],
      [
        "ĠÐ¼Ð¸Ð½",
        "ÑĥÑĤ"
      ],
      [
        "ĠÐ²ÑĭÑģÑĤÑĢÐµÐ»Ð¸",
        "Ð»"
      ],
      [
        "Ð½ÑĥÐ²",
        "ÑĪÐ¸ÑģÑĮ"
      ],
      [
        "ĠÑįÑĤ",
        "Ð°Ð¶"
      ],
      [
        "ĠÐ·Ð°Ð¼Ðµ",
        "ÑĤÐ¸Ð»"
      ],
      [
        "ĠÑĪÑĤÐ¾Ð¿",
        "Ð¾ÑĢ"
      ],
      [
        "Ð²ÐµÐ¹",
        "ÑĨÐ°ÑĢÐ¸"
      ],
      [
        "ĠÐ¿Ð»Ðµ",
        "Ñĩ"
      ],
      [
        "ĠÑģÑĥÐ±",
        "Ð±Ð¾ÑĤ"
      ],
      [
        "ĠÐ½ÐµÐ·",
        "Ð°Ð¼"
      ],
      [
        "ĠÐºÐ°Ð´",
        "ÑĢÐ¾Ð¼"
      ],
      [
        "ĠÑĥÐ·",
        "Ð½Ð°Ð»"
      ],
      [
        "ĠÐ±ÑĥÐ¼",
        "Ð°Ð³"
      ],
      [
        "ĠÐ±ÑĥÑĤ",
        "ÑĭÐ»"
      ],
      [
        "ĠÑĤÐ¾Ð¶",
        "Ðµ"
      ],
      [
        "Ð¾ÑĤÐ¾Ð³",
        "ÑĢÐ°"
      ],
      [
        "ĠÐ¾Ð±Ð½Ð°ÑĢ",
        "ÑĥÐ¶Ð¸Ð»"
      ],
      [
        "ĠÐłÐ¾Ð»ÑĮ",
        "ÑĦ"
      ],
      [
        "ĠÑĦÐ°ÑĪÐ¸",
        "ÑģÑĤ"
      ],
      [
        "ÐĹÐ²Ð¾Ð½",
        "Ð¾Ðº"
      ],
      [
        "ĠÑģÑĥÐ±Ð±Ð¾ÑĤ",
        "Ð½Ð¸Ðº"
      ],
      [
        "!",
        "Â»."
      ],
      [
        "4",
        "5"
      ],
      [
        "?",
        "!"
      ],
      [
        "Ð",
        "Ń"
      ],
      [
        "Ġ",
        "2"
      ],
      [
        "ĠÐ",
        "Ľ"
      ],
      [
        "Ð¾",
        "Ð¸"
      ],
      [
        "Ð¾",
        "Ñı"
      ],
      [
        "Ð¾",
        "Ñħ"
      ],
      [
        "Ð¾",
        "ÑģÑĤÑĮÑİ"
      ],
      [
        "Ð¸",
        "Ð¸"
      ],
      [
        "Ð¸",
        "Ñı"
      ],
      [
        "Ð¸",
        "Ñİ"
      ],
      [
        "Ð»",
        "Ð°Ñģ"
      ],
      [
        "Ð»",
        "Ð¾Ð½"
      ],
      [
        "Ð»",
        "ÐµÐ½Ð¸"
      ],
      [
        "Ð»",
        "Ð¾ÑģÑĮ"
      ],
      [
        "ÑĤ",
        "Ñĭ"
      ],
      [
        "ÑĢ",
        "ÐµÐ¹"
      ],
      [
        "ÑĢ",
        "Ð¾Ð³"
      ],
      [
        "ÑĢ",
        "ÑĭÐ²"
      ],
      [
        "ÑĢ",
        "Ð°Ð¼Ð¼"
      ],
      [
        "Ñģ",
        "Ñį"
      ],
      [
        "Ñģ",
        "ÐºÐ°Ñı"
      ],
      [
        "Ð½",
        "Ð¸Ñĩ"
      ],
      [
        "Ð½",
        "Ð¾ÑģÑĤÐ¸"
      ],
      [
        "Ñĥ",
        "Ð½"
      ],
      [
        "Ñĥ",
        "Ð·"
      ],
      [
        "Ñĥ",
        "ÑĦ"
      ],
      [
        "Ñĥ",
        "Ð»Ñı"
      ],
      [
        "Ðº",
        "Ð¾Ð»ÑĮÐºÐ¾"
      ],
      [
        "Ð²",
        "Ð°Ð»"
      ],
      [
        "Ð²",
        "Ð¾Ð´"
      ],
      [
        "Ð²",
        "Ð¾Ð·"
      ],
      [
        "ĠÐ¿",
        "ÑıÑĤ"
      ],
      [
        "ÑĨ",
        "ÐµÐ»Ñı"
      ],
      [
        "ÑĤÐ¸",
        "Ð¹"
      ],
      [
        "ĠÑģ",
        "Ð¼"
      ],
      [
        "ĠÑģ",
        "Ð¾Ð»"
      ],
      [
        "ĠÑģ",
        "Ð¾ÑĤ"
      ],
      [
        "ĠÑģ",
        "Ð¾Ð¿"
      ],
      [
        "ĠÑģ",
        "ÐµÐº"
      ],
      [
        "ĠÑģ",
        "Ð»Ð¸Ð²"
      ],
      [
        "ĠÑģ",
        "Ð¼Ð¾ÑĤÑĢ"
      ],
      [
        "ĠÐ²",
        "Ð°Ð»"
      ],
      [
        "ĠÐ²",
        "Ð¾Ð¹"
      ],
      [
        "ĠÐ²",
        "Ð¾Ð»"
      ],
      [
        "ĠÐ²",
        "ÑĤÐ¾ÑĢ"
      ],
      [
        "ĠÐ²",
        "ÐµÑĩ"
      ],
      [
        "Ñĭ",
        "Ðº"
      ],
      [
        "Ñĭ",
        "ÑĪÐ¸"
      ],
      [
        "ÑĮ",
        "Ñİ"
      ],
      [
        "Ð¼",
        "Ð¾"
      ],
      [
        "Ð¼",
        "Ð»ÐµÑĢ"
      ],
      [
        "Ð¼",
        "Ð¾Ð¶"
      ],
      [
        "Ð¼",
        "Ð°Ñħ"
      ],
      [
        "Ñĩ",
        "Ð¸"
      ],
      [
        "Ñĩ",
        "Ð°ÐµÑĤ"
      ],
      [
        "Ñĩ",
        "ÐµÐ¼"
      ],
      [
        "Ð´",
        "Ñĥ"
      ],
      [
        "Ð´",
        "Ð¸ÑĤÐµ"
      ],
      [
        "Ð´",
        "ÑĥÑħ"
      ],
      [
        "ĠÐ½",
        "ÐµÑĤ"
      ],
      [
        "ĠÐ½",
        "ÐµÐ½"
      ],
      [
        "ĠÐ½",
        "Ð°Ð·"
      ],
      [
        "ĠÐ½",
        "Ð¾Ñģ"
      ],
      [
        "ĠÐ½",
        "Ð¾ÑĢ"
      ],
      [
        "ĠÐ½",
        "Ð°Ð³"
      ],
      [
        "ĠÐ½",
        "Ð¸ÑĩÐµÐ³Ð¾"
      ],
      [
        "Ð°Ð»",
        "Ñĥ"
      ],
      [
        "ÐµÑĢ",
        "Ð°"
      ],
      [
        "ÐµÑĢ",
        "Ñģ"
      ],
      [
        "ÑĪ",
        "ÐµÐ³Ð¾"
      ],
      [
        "ĠÐ¸",
        "Ñģ"
      ],
      [
        "ĠÐ¸",
        "Ð½"
      ],
      [
        "ĠÐ¾",
        "Ñĩ"
      ],
      [
        "ĠÐ¾",
        "ÐºÑĥ"
      ],
      [
        "ÑĤÐ¾",
        "ÑĦ"
      ],
      [
        "ĠÐº",
        "Ð¾Ð¼"
      ],
      [
        "ĠÐº",
        "Ð°Ð¼"
      ],
      [
        "ĠÐº",
        "Ð°Ð¶"
      ],
      [
        "ĠÐº",
        "Ð¾ÑĪ"
      ],
      [
        "ĠÐº",
        "Ð¾Ð³Ð´Ð°"
      ],
      [
        "ÐµÐ»",
        "Ð°"
      ],
      [
        "ÐµÐ»",
        "Ð¾ÑģÑĮ"
      ],
      [
        "ÐµÐ»",
        "ÑıÑĤÑĮ"
      ],
      [
        "ĠÐ´",
        "Ð¾Ñģ"
      ],
      [
        "ĠÐ´",
        "Ð¾ÑĢ"
      ],
      [
        "ĠÐ´",
        "Ð¾Ð¶"
      ],
      [
        "ĠÐ´",
        "ÑĢÑĥÐ³"
      ],
      [
        "ĠÐ´",
        "ÐµÑĢÐ³"
      ],
      [
        "Ñħ",
        "Ð¾ÑĤ"
      ],
      [
        "ĠÑĥ",
        "ÐµÑħ"
      ],
      [
        "ĠÑĥ",
        "ÑĢÐ¾Ð´"
      ],
      [
        "ĠÑĥ",
        "Ð½Ð¸ÑĤ"
      ],
      [
        "ÐµÐ½",
        "Ñĥ"
      ],
      [
        "ÐµÐ½",
        "Ð½Ð¾Ð¹"
      ],
      [
        "ÐµÐ½",
        "ÑĤÐ¾Ð¼"
      ],
      [
        "ÐµÐ½",
        "Ð¸Ð¼Ð¾"
      ],
      [
        "ÐµÐ½",
        "Ð½ÑĭÐ¼"
      ],
      [
        "ÐµÐ½",
        "Ð½ÐµÐ¼Ñĥ"
      ],
      [
        "Ð¾Ð²",
        "Ð¸Ð»"
      ],
      [
        "Ð¾Ð²",
        "Ð½Ð¾"
      ],
      [
        "Ð¾Ð²",
        "Ð°Ð»ÑģÑı"
      ],
      [
        "Ð¾Ð²",
        "Ð¸ÑĤÐµ"
      ],
      [
        "Ð¾Ð²",
        "Ð°ÑĢÐ¸"
      ],
      [
        "ĠÐ·",
        "Ð²"
      ],
      [
        "Ð¿",
        "ÐµÐ½Ð¸Ðµ"
      ],
      [
        "ÑģÑĤ",
        "Ð½Ð¾"
      ],
      [
        "ĠÑĢ",
        "ÐµÑģ"
      ],
      [
        "ĠÑĢ",
        "ÐµÐ·"
      ],
      [
        "ĠÑĢ",
        "ÑĥÑģ"
      ],
      [
        "ĠÑĢ",
        "ÑĥÐº"
      ],
      [
        "ĠÑĢ",
        "ÑıÐ´Ð¾Ð¼"
      ],
      [
        "ĠÑĢ",
        "ÐµÐ¹Ñħ"
      ],
      [
        "ĠÐ±",
        "Ð¾"
      ],
      [
        "ĠÐ±",
        "Ð°Ð»"
      ],
      [
        "Ð°Ð½",
        "Ð°"
      ],
      [
        "Ð°Ð½",
        "ÑĤÐ°"
      ],
      [
        "ĠÐ¿Ð¾",
        "Ð½"
      ],
      [
        "ĠÐ¿Ð¾",
        "ÑıÐ²"
      ],
      [
        "ĠÐ¿Ð¾",
        "ÑģÑĤÐ°Ð²"
      ],
      [
        "ĠÐ¼",
        "Ñĩ"
      ],
      [
        "ĠÐ¼",
        "ÐµÑĤ"
      ],
      [
        "ĠÐ¼",
        "Ð¾ÑĢ"
      ],
      [
        "ĠÐ¼",
        "Ð¾Ð»"
      ],
      [
        "ĠÐ¼",
        "ÑĥÑģ"
      ],
      [
        "ĠÐ¼",
        "ÐµÑģÑĤ"
      ],
      [
        "ĠÐ¼",
        "ÐµÑģÑı"
      ],
      [
        "Ð°Ð·",
        "Ð²ÐµÐ´"
      ],
      [
        "Ð°Ð·",
        "Ð¾Ð²Ð¸ÑĤÐµ"
      ],
      [
        "ĠÑĤ",
        "ÑĢÐµ"
      ],
      [
        "ĠÑĤ",
        "ÑĥÑĤ"
      ],
      [
        "ĠÑĤ",
        "ÐµÑħ"
      ],
      [
        "ĠÑĤ",
        "Ð¾Ð²Ð°ÑĢÐ¸"
      ],
      [
        "Ð±",
        "ÑĥÐ´"
      ],
      [
        "ĠÐ½Ðµ",
        "Ð¼Ñĥ"
      ],
      [
        "ĠÐ¿ÑĢ",
        "Ð¸Ð½"
      ],
      [
        "ĠÐ¿ÑĢ",
        "Ð°Ð²"
      ],
      [
        "ĠÐ¿ÑĢ",
        "Ð¸Ð²"
      ],
      [
        "ĠÐ¿ÑĢ",
        "Ð¸Ñģ"
      ],
      [
        "ĠÐ¿ÑĢ",
        "Ð¾Ð³Ñĥ"
      ],
      [
        "ĠÐ¿ÑĢ",
        "Ð°Ð·Ð´"
      ],
      [
        "Ð¾Ñģ",
        "Ð¸Ð»"
      ],
      [
        "Ð¾Ñģ",
        "Ð»Ðµ"
      ],
      [
        "ÑĦ",
        "Ð¸ÑĢ"
      ],
      [
        "ÑĦ",
        "Ð°Ð½ÑĤ"
      ],
      [
        "ľÑİÐ»",
        "Ð»Ðµ"
      ],
      [
        "ĠÐ¿Ð¾Ð´",
        "ÑħÐ¾Ð´Ð¸ÑĤ"
      ],
      [
        "Ð¸Ð´",
        "Ð°Ð½Ð½Ð¾"
      ],
      [
        "Ð°Ð¼",
        "Ð¸Ð»Ð¸"
      ],
      [
        "ĠÐ³",
        "ÑĢÐµÑħ"
      ],
      [
        "Ð¾Ð»",
        "ÑĤÐ¾ÑĦ"
      ],
      [
        "Ð°ÑĢ",
        "Ð¸Ð»"
      ],
      [
        "ĠÐ²Ñĭ",
        "Ð±"
      ],
      [
        "ĠÐ²Ñĭ",
        "ÐºÐ»ÑİÑĩ"
      ],
      [
        "ÐµÐ´",
        "Ð½ÑĭÐ¹"
      ],
      [
        "Ð°Ð²",
        "Ð°Ð»"
      ],
      [
        "Ð½Ñĥ",
        "ÑĤÑĮ"
      ],
      [
        "ĠÐ»",
        "ÑĭÐ¶"
      ],
      [
        "Ð¾ÑĤ",
        "Ð¾Ð¼"
      ],
      [
        "ĠÐµ",
        "Ðµ"
      ],
      [
        "ĠÐµ",
        "ÑħÐ°Ð»"
      ],
      [
        "Ð¶",
        "Ð°Ñı"
      ],
      [
        "ÐµÑģ",
        "ÑĤÐ¾"
      ],
      [
        "ÐµÑģ",
        "ÐºÐ¸Ð¹"
      ],
      [
        "ĠÐŁ",
        "ÑĢ"
      ],
      [
        "ĠÐŁ",
        "Ð¾Ð»"
      ],
      [
        "ĠÐŁ",
        "Ð¾Ñĩ"
      ],
      [
        "ĠÐŁ",
        "Ð¾ÑĤÐ¾Ð¼"
      ],
      [
        "ÐºÐ°",
        "Ñħ"
      ],
      [
        "Ð°Ð»Ð¸",
        "Ð»"
      ],
      [
        "ĠÐ·Ð°",
        "ÑģÑĤ"
      ],
      [
        "ĠÐ·Ð°",
        "ÑħÐ¾Ð´Ð¸ÑĤ"
      ],
      [
        "ÐµÐ²",
        "Ð°Ð»"
      ],
      [
        "ĠÑĢÐ°Ð·",
        "Ð¾Ð±"
      ],
      [
        "ĠÐ¡",
        "Ð²"
      ],
      [
        "ĠÐĿ",
        "Ð°Ð·Ð¾Ð²Ð¸ÑĤÐµ"
      ],
      [
        "ÑĪÐ¸",
        "Ð²"
      ],
      [
        "Ð¾Ð¶",
        "Ð¸Ð´Ð°Ð½Ð½Ð¾"
      ],
      [
        "Ð½Ñĭ",
        "Ñħ"
      ],
      [
        "ÐµÐ·",
        "Ð¶Ð°Ñı"
      ],
      [
        "ĠÑĤÐ¾",
        "Ð½ÐºÐ¸"
      ],
      [
        "ĠÐļ",
        "ÑĢÐ°Ñģ"
      ],
      [
        "ÑĭÐ²",
        "Ð°Ð½Ð¸Ñı"
      ],
      [
        "Ð¾Ñĩ",
        "ÑĮ"
      ],
      [
        "Ð¾Ñĩ",
        "Ð½Ð¾Ð¹"
      ],
      [
        "ĠÑį",
        "ÑĤÐ¸"
      ],
      [
        "ĠÑį",
        "ÑģÑį"
      ],
      [
        "Ð¸Ð¼",
        "Ð¼Ð»ÐµÑĢ"
      ],
      [
        "ĠÐ¸Ð·",
        "Ð²Ðµ"
      ],
      [
        "ĠÐ°",
        "Ð½Ð°Ð»"
      ],
      [
        "ĠÐ¾Ð±",
        "ÑĢ"
      ],
      [
        "Ð¸Ð²",
        "Ð°Ð»"
      ],
      [
        "ÑĥÑģ",
        "Ðº"
      ],
      [
        "ÑıÐ»",
        "Ð°"
      ],
      [
        "ĠÑĥÐ²",
        "Ð¸Ð´"
      ],
      [
        "Ð°Ð·Ð°Ð»",
        "Ð°"
      ],
      [
        "ĠÐ¨",
        "Ð²ÐµÐ¹ÑĨÐ°ÑĢÐ¸"
      ],
      [
        "Ð½ÑĥÐ»",
        "ÑģÑı"
      ],
      [
        "ÐĴ",
        "Ð¾"
      ],
      [
        "ÐĴ",
        "ÐµÑĢ"
      ],
      [
        "ÐŁ",
        "Ð¾"
      ],
      [
        "ÐŁ",
        "Ð¾Ð¿"
      ],
      [
        "ĠÐĶ",
        "Ð¾Ð¼"
      ],
      [
        "ĠÐł",
        "ÑĥÑģÑģ"
      ],
      [
        "ĠÐł",
        "Ð¾ÑģÑģ"
      ],
      [
        "Ð°Ð¹",
        "ÐºÐµ"
      ],
      [
        "ĠÑĦ",
        "Ð¾ÑĤÐ¾Ð³ÑĢÐ°"
      ],
      [
        "ĠÑĦ",
        "ÑĥÑĦ"
      ],
      [
        "ĠÑĦ",
        "Ð°Ð¼Ð¸Ð»Ð¸"
      ],
      [
        "ĠÐĺ",
        "Ð·"
      ],
      [
        "ĠÐĺ",
        "Ð²Ð°Ð½"
      ],
      [
        "Ð¸Ñĩ",
        "Ð°Ð»"
      ],
      [
        "ĠÐºÐ°Ðº",
        "Ð¾Ð¹"
      ],
      [
        "ĠÐŀ",
        "Ð½Ð¸"
      ],
      [
        "ĠÐŀ",
        "Ð¿ÑıÑĤÑĮ"
      ],
      [
        "Ð°Ð¶",
        "Ñĥ"
      ],
      [
        "ĠÐĵ",
        "ÐµÑĢ"
      ],
      [
        "ĠÐĵ",
        "Ð´Ðµ"
      ],
      [
        "ĠÐĵ",
        "Ð¾Ð»Ð¾Ñģ"
      ],
      [
        "ÑģÐº",
        "Ð¾Ð³Ð¾"
      ],
      [
        "ÑĥÑİ",
        "ÑīÐµ"
      ],
      [
        "ĠÐ±Ñĭ",
        "Ð»Ð¸"
      ],
      [
        "ĠÐ±Ñĭ",
        "ÑĤÑĮ"
      ],
      [
        "ĠÐºÐ°Ð±Ð¸Ð½ÐµÑĤ",
        "Ð°"
      ],
      [
        "ĠÑħ",
        "ÑĢ"
      ],
      [
        "ĠÑħ",
        "Ð¾Ð»Ð¾Ð´"
      ],
      [
        "ĠÐ¿Ð¾Ð¿",
        "ÑĢÐ¾ÑģÐ¸Ð»"
      ],
      [
        "Ð½Ð¸",
        "Ð±ÑĥÐ´"
      ],
      [
        "ĠÑģÑĤ",
        "Ð°Ð»"
      ],
      [
        "ĠÑģÑĤ",
        "Ð°ÑĢ"
      ],
      [
        "ĠÑģÑĤ",
        "Ð°ÑĤÑĮ"
      ],
      [
        "ĠÐºÐ¾Ð½",
        "Ñĩ"
      ],
      [
        "ĠÐºÐ¾Ð½",
        "ÐµÑĩ"
      ],
      [
        "ĠÐºÐ¾Ð½",
        "ÐµÑĨ"
      ],
      [
        "ĠÐ¾ÑĤÐ²Ðµ",
        "ÑĩÐ°ÐµÑĤ"
      ],
      [
        "ĠÐ¼Ð°ÑĪÐ¸Ð½",
        "Ñĭ"
      ],
      [
        "ĠÐ¿Ð¾Ñģ",
        "Ð»ÐµÐ´"
      ],
      [
        "ĠÐ²ÑģÐµ",
        "Ñħ"
      ],
      [
        "ÐĿ",
        "Ðµ"
      ],
      [
        "ĠÐ¿ÐµÑĢ",
        "ÐµÐ±"
      ],
      [
        "ĠÑģÐµÐ¹",
        "ÑĩÐ°Ñģ"
      ],
      [
        "ĠÑĥÐ¿",
        "Ð°Ð»Ð°"
      ],
      [
        "ÑģÑĤÐ²",
        "Ð¾"
      ],
      [
        "Ð½Ð¸Ðº",
        "Ð°"
      ],
      [
        "ÑĨÐ¸",
        "Ñı"
      ],
      [
        "ĠÐ²Ð·",
        "Ð³Ð»Ñı"
      ],
      [
        "ĠÐ·Ð°Ðº",
        "ÑĢ"
      ],
      [
        "ĠÐ·Ð°Ðº",
        "Ð¾Ð½Ñĩ"
      ],
      [
        "ĠÐ³Ð¾Ð»",
        "ÑĥÐ±"
      ],
      [
        "Ðĵ",
        "Ð¸Ð¼Ð¼Ð»ÐµÑĢ"
      ],
      [
        "Ðļ",
        "ÑįÑĤ"
      ],
      [
        "ĠÑĢÑĥÑģÑģ",
        "ÐºÐ°Ñı"
      ],
      [
        "ĠÐ²Ð¾Ð·",
        "Ð´ÑĥÑħ"
      ],
      [
        "ÐµÐ¿",
        "ÐµÑĢÑĮ"
      ],
      [
        "ĠÑĢÐ°Ñģ",
        "Ð¿"
      ],
      [
        "ĠÐ³ÑĢ",
        "Ð¾Ð¼"
      ],
      [
        "ĠÑģÐ¾Ð±",
        "Ð°Ñĩ"
      ],
      [
        "ĠÐ´ÐµÐ»",
        "Ð¾"
      ],
      [
        "ĠÑĥÐ´",
        "Ð°ÑĢÐ¸Ð»"
      ],
      [
        "ĠÐ·Ð°Ð¼",
        "ÐµÑĩ"
      ],
      [
        "ĠÐ³Ð¾ÑĢ",
        "Ð¼Ð¾ÑĪ"
      ],
      [
        "ĠÐ³Ð¾ÑĢ",
        "Ð¾Ð´Ñĥ"
      ],
      [
        "ĠÑģÐ¸Ð´",
        "ÑıÑĤ"
      ],
      [
        "ĠÐºÐ¾",
        "ÑĦÐµ"
      ],
      [
        "ĠÐ´Ð²",
        "ÑĥÐ·"
      ],
      [
        "ĠÐ·Ð½",
        "Ð°ÐµÑĤÐµ"
      ],
      [
        "ĠÐ³ÐµÑģÑĤÐ°Ð¿",
        "Ð¾Ð²"
      ],
      [
        "ÑĢÐ°Ð²",
        "Ð´Ð°"
      ],
      [
        "Ð²ÐµÑĤ",
        "Ð°"
      ],
      [
        "ĠÑĥÑĤÑĢ",
        "Ð¾"
      ],
      [
        "ĠÐ·Ð°Ð¿",
        "Ð¸Ñģ"
      ],
      [
        "ĠÐĳÐµÑĢÐ»Ð¸",
        "Ð½Ð¾Ð¼"
      ],
      [
        "ĠÐ¶ÐµÐ½",
        "Ðµ"
      ],
      [
        "ĠÐ¶ÐµÐ½",
        "Ð¾Ð¹"
      ],
      [
        "Ð¢",
        "Ð°Ðº"
      ],
      [
        "ĠÐĹ",
        "Ð°Ð¿"
      ],
      [
        "ĠÐºÐ°ÑĢ",
        "Ð¼Ð°Ð½"
      ],
      [
        "ĠÐ±Ð°ÑĢ",
        "Ð¼ÐµÐ½"
      ],
      [
        "ĠÑĤÑĭ",
        "ÑģÑı"
      ],
      [
        "Ð½Ð°Ñĩ",
        "Ð½Ð¾Ðµ"
      ],
      [
        "ĠÐŁÐ»ÐµÐ¹ÑĪÐ½ÐµÑĢ",
        "Ð°"
      ],
      [
        "ĠÐ¦",
        "ÐµÐ½ÑĤÑĢÐ°"
      ],
      [
        "ĠÑģÐ¾Ð²ÐµÑĤ",
        "ÑģÐºÐ¸Ð¹"
      ],
      [
        "ĠÐ·Ð°Ð±",
        "ÑĭÐ»"
      ],
      [
        "ĠÐ¡ÑĤÐ°Ð»Ð¸",
        "Ð½"
      ],
      [
        "ĠÐ²Ð°ÑĪ",
        "Ð°"
      ],
      [
        "ĠÐ¾ÑĩÐµÑĢÐµÐ´",
        "Ð½Ð¾Ð¹"
      ],
      [
        "ĠÐ´Ð°Ð²",
        "Ð½Ð¾"
      ],
      [
        "Ð°Ð½ÑĮ",
        "ÑĪÐµ"
      ],
      [
        "ĠÑĢÐ°Ð·Ð±",
        "ÐµÐ¶"
      ],
      [
        "ĠÐ¨ÐµÐ»",
        "Ð»ÐµÐ½"
      ],
      [
        "ĠÐ¨ÐµÐ»",
        "ÐµÐ½Ð±ÐµÑĢÐ³"
      ],
      [
        "ĠÐłÐ¾Ð´Ð¸Ð½",
        "Ðµ"
      ],
      [
        "Ð»Ð°Ð´",
        "ÑĭÐ²Ð°Ð½Ð¸Ñı"
      ],
      [
        "ĠÐ¿Ð¾Ð¼",
        "Ð¾Ð³"
      ],
      [
        "ĠÐ²Ð¸Ð»",
        "Ð»Ðµ"
      ],
      [
        "ĠÐºÑĥ",
        "ÑģÑĤ"
      ],
      [
        "ĠÐºÐ°Ð½",
        "Ð°ÑĤ"
      ],
      [
        "ĠÐ´ÐµÐ²",
        "Ð¾Ñĩ"
      ],
      [
        "ĠÐ´ÐµÐ¹ÑģÑĤÐ²",
        "Ð¸ÑĤÐµÐ»ÑĮÐ½Ð¾"
      ],
      [
        "ĠÑĥÐ»Ð¸ÑĨ",
        "Ðµ"
      ],
      [
        "ĠÐ½Ð°ÑĥÑĩ",
        "Ð¸Ð»ÑģÑı"
      ],
      [
        "ĠÐ¼Ð¾Ð¶",
        "ÐµÑĤ"
      ],
      [
        "ĠÑĤÐµÐ±",
        "Ðµ"
      ],
      [
        "ĠÐµÐ²",
        "ÑĢÐµÐ¹"
      ],
      [
        "ĠÑĤÑĢÐµÑĤÑĮ",
        "ÐµÐ³Ð¾"
      ],
      [
        "ĠÐºÑĢÐ¸Ðº",
        "Ð½ÑĥÐ»"
      ],
      [
        "Ġ10",
        "0"
      ],
      [
        "ĠÐ³ÑĢÑĥÐ¿Ð¿",
        "ÐµÐ½ÑĦÑİÑĢÐµÑĢ"
      ],
      [
        "Ðľ",
        "ÐµÐ½Ñı"
      ],
      [
        "ĠÐ¥",
        "Ð¾Ð»ÑĤÐ¾ÑĦ"
      ],
      [
        "ÑģÐ¾Ð²",
        "ÑĨÑĭ"
      ],
      [
        "ĠÐ¿ÑĮÑı",
        "Ð½ÐºÐ¸"
      ],
      [
        "ĠÐ¿Ð»Ð¾Ñħ",
        "Ð°Ñı"
      ],
      [
        "ĠÑģÐ´ÐµÐ»",
        "Ð°Ð»"
      ],
      [
        "ĠÐ²ÑĩÐµÑĢ",
        "Ð°"
      ],
      [
        "ĠÐºÐ°",
        "ÑĦÐµ"
      ],
      [
        "ĠÐ´Ð¾Ð»",
        "Ð³Ð¾"
      ],
      [
        "ĠÐ´ÑĥÑĢ",
        "Ð°Ðº"
      ],
      [
        "ĠÐ´ÐµÑĢÐµÐ²",
        "ÑĮÑı"
      ],
      [
        "ĠÑĩÐ¸Ñģ",
        "Ð»Ð¾"
      ],
      [
        "ĠÐ»ÐµÐ²",
        "ÑĥÑİ"
      ],
      [
        "ĠÑħÐ¾ÑĤ",
        "ÑĮ"
      ],
      [
        "ĠÑģÑĤÐ°Ðº",
        "Ð°Ð½"
      ],
      [
        "ĠÐºÑĢÐ¾Ð¼",
        "Ðµ"
      ],
      [
        "ĠÐ·Ð°Ð´ÑĥÐ¼Ð°Ð»",
        "ÑģÑı"
      ],
      [
        "ĠÐ¿Ð»Ð°Ðº",
        "Ð°ÑĤ"
      ],
      [
        "ĠÐºÐ¾Ð»Ð±Ð°Ñģ",
        "Ñĥ"
      ],
      [
        "ĠÐ½Ð°ÑĩÐ¸Ð½",
        "Ð°ÐµÑĤ"
      ],
      [
        "ĠÐ¾Ð±ÑĬÑıÐ²",
        "Ð»ÐµÐ½Ð¸Ðµ"
      ],
      [
        "ĠÐ¿Ð»ÐµÑĩ",
        "Ð¾Ð¼"
      ],
      [
        "ĠÐ½ÐµÐ·Ð°Ð¼",
        "ÐµÐ½Ð¸Ð¼Ð¾"
      ],
      [
        "ĠÐ±ÑĥÑĤÑĭÐ»",
        "ÐºÑĥ"
      ],
      [
        "ÑĨÐµÐ»Ñı",
        "ÑĢÐ¸"
      ],
      [
        "ĠÑģÐ¾Ð»",
        "Ð´"
      ],
      [
        "ĠÑģÐ¾Ð¿",
        "ÑĢÐ¾ÑĤÐ¸Ð²"
      ],
      [
        "ĠÑģÐµÐº",
        "Ñģ"
      ],
      [
        "ĠÐ²ÐµÑĩ",
        "ÐµÑĢ"
      ],
      [
        "ĠÐ½Ð°Ð·",
        "Ð°Ð´"
      ],
      [
        "ĠÑĥÐµÑħ",
        "Ð°Ð»Ð¸"
      ],
      [
        "ĠÑĥÐ½Ð¸ÑĤ",
        "Ð°Ð·"
      ],
      [
        "ĠÑĢÐµÑģ",
        "ÑĤÐ¾ÑĢ"
      ],
      [
        "ĠÑĢÑĥÑģ",
        "ÑģÐºÐ¾Ð¹"
      ],
      [
        "ĠÑĢÑĥÐº",
        "Ð°Ð¼Ð¸"
      ],
      [
        "ĠÐ¼ÐµÑģÑı",
        "ÑĨ"
      ],
      [
        "ĠÑĤÑĢÐµ",
        "ÑĤÐ¸Ð¹"
      ],
      [
        "ĠÑĤÐ¾Ð²Ð°ÑĢÐ¸",
        "Ñī"
      ],
      [
        "ĠÐ¿ÑĢÐ¾Ð³Ñĥ",
        "Ð»Ð¸Ð²"
      ],
      [
        "ľÑİÐ»Ð»Ðµ",
        "p"
      ],
      [
        "ĠÑĤÐ¾Ð½ÐºÐ¸",
        "Ð¼"
      ],
      [
        "ĠÐ¸Ð·Ð²Ðµ",
        "ÑģÑĤÐ½Ð¾"
      ],
      [
        "ĠÐ°Ð½Ð°Ð»",
        "ÑĮ"
      ],
      [
        "ĠÑĦÐ¾ÑĤÐ¾Ð³ÑĢÐ°",
        "ÑĦÐ¸ÑĢ"
      ],
      [
        "ĠÐĺÐ²Ð°Ð½",
        "Ð¾Ð²Ð¸Ñĩ"
      ],
      [
        "ĠÑħÐ¾Ð»Ð¾Ð´",
        "Ð½Ð¾Ðµ"
      ],
      [
        "Ð½Ð¸Ð±ÑĥÐ´",
        "ÑĮ"
      ],
      [
        "ĠÐºÐ¾Ð½ÐµÑĩ",
        "Ð½Ð¾"
      ],
      [
        "ĠÐ³Ð¾Ð»ÑĥÐ±",
        "ÑĭÐµ"
      ],
      [
        "ĠÐ´Ð²ÑĥÐ·",
        "Ð½Ð°ÑĩÐ½Ð¾Ðµ"
      ],
      [
        "ĠÐ½ÐµÐ·Ð°Ð¼ÐµÐ½Ð¸Ð¼Ð¾",
        "Ðµ"
      ],
      [
        "9",
        "4"
      ],
      [
        "?",
        "?"
      ],
      [
        "H",
        "i"
      ],
      [
        "y",
        "Ð¼"
      ],
      [
        "©",
        "ÑĤÐ¸ÑĢ"
      ],
      [
        "«",
        "Ð¨"
      ],
      [
        "Ð",
        "Ľ"
      ],
      [
        "Ð",
        "¨ÑĤÐ¸ÑĢÐ»ÐµÑĨ"
      ],
      [
        "Ð",
        "«Ð¨"
      ],
      [
        "Ġ",
        "5"
      ],
      [
        "Ġ",
        "9"
      ],
      [
        "Ġ",
        "Ñī"
      ],
      [
        "Ġ",
        "45"
      ],
      [
        "ĠÐ",
        "¤"
      ],
      [
        "ĠÐ",
        "¨ÑĤÐ¸ÑĢÐ»ÐµÑĨ"
      ],
      [
        "ĠÐ",
        "ľÑİÐ»Ð»Ðµp"
      ],
      [
        "Ð¾",
        "ÑĦ"
      ],
      [
        "Ð¾",
        "ÐµÑĤÑģÑı"
      ],
      [
        "Ð¸",
        "Ð¾"
      ],
      [
        "Ð¸",
        "Ð¿"
      ],
      [
        "Ð¸",
        "Ð³"
      ],
      [
        "Ð¸",
        "Ð¶"
      ],
      [
        "Ðµ",
        "p"
      ],
      [
        "Ðµ",
        "Ñī"
      ],
      [
        "Ð»",
        "ÐµÐ»"
      ],
      [
        "Ð»",
        "Ð°Ð²"
      ],
      [
        "Ð»",
        "Ð¾Ðº"
      ],
      [
        "Ð»",
        "ÑıÑĤ"
      ],
      [
        "Ð»",
        "ÑıÐ»ÑģÑı"
      ],
      [
        "ÑĤ",
        "Ð°Ð½"
      ],
      [
        "ÑĤ",
        "Ð¾Ð³"
      ],
      [
        "ÑĢ",
        "Ð´"
      ],
      [
        "ÑĢ",
        "Ð°Ð·"
      ],
      [
        "ÑĢ",
        "Ð¸Ð½"
      ],
      [
        "ÑĢ",
        "Ð¸Ð¼"
      ],
      [
        "ÑĢ",
        "ÐµÐ·Ð´"
      ],
      [
        "Ñģ",
        "Ð½Ð¾"
      ],
      [
        "Ñģ",
        "Ð¸Ð¼"
      ],
      [
        "Ð½",
        "Ñİ"
      ],
      [
        "Ð½",
        "Ð°Ð´"
      ],
      [
        "Ð½",
        "ÐµÐ¹"
      ],
      [
        "Ð½",
        "Ð°Ð³"
      ],
      [
        "Ð½",
        "ÐµÐ³Ð¾"
      ],
      [
        "Ð½",
        "Ð°Ð¶"
      ],
      [
        "Ð½",
        "Ð¸ÑĤÐµ"
      ],
      [
        "Ð½",
        "Ð¸ÑģÑĤÐ¸"
      ],
      [
        "Ð½",
        "ÐµÑĪÑĮ"
      ],
      [
        "Ñĥ",
        "Ð½ÑĥÐ»"
      ],
      [
        "Ñĥ",
        "Ð»ÑĮ"
      ],
      [
        "Ñĥ",
        "Ð»Ð¾"
      ],
      [
        "Ðº",
        "Ð¾Ð²"
      ],
      [
        "Ðº",
        "ÑĤÑĢ"
      ],
      [
        "Ðº",
        "Ð°Ð¼Ð¸"
      ],
      [
        "Ðº",
        "ÐµÑĤÐµ"
      ],
      [
        "Ð²",
        "ÐºÑĥ"
      ],
      [
        "Ð²",
        "Ð¾Ð³Ð¾"
      ],
      [
        "Ð²",
        "ÑģÑĤÐ²"
      ],
      [
        "Ð²",
        "Ð·Ð½"
      ],
      [
        "Ð²",
        "Ð¸Ð½Ñĥ"
      ],
      [
        "Ð»Ð¸",
        "ÑĪ"
      ],
      [
        "Ð»Ð¸",
        "Ð·"
      ],
      [
        "Ð»Ð¸",
        "ÑģÑĮ"
      ],
      [
        "Ð»Ð¸",
        "ÐºÐ½ÑĥÐ»"
      ],
      [
        "ĠÐ¿",
        "Ð°Ñģ"
      ],
      [
        "ĠÐ¿",
        "Ð°ÑĤ"
      ],
      [
        "ĠÐ¿",
        "Ð°Ð´"
      ],
      [
        "ĠÐ¿",
        "Ð¾Ð³"
      ],
      [
        "ĠÐ¿",
        "ÐµÑģ"
      ],
      [
        "ĠÐ¿",
        "Ð¸Ñģ"
      ],
      [
        "ĠÐ¿",
        "Ð¸Ð»Ð¸"
      ],
      [
        "ĠÐ¿",
        "Ð¾Ð²Ð¾ÑĢ"
      ],
      [
        "ĠÐ¿",
        "Ð¸ÑģÑĮ"
      ],
      [
        "ĠÐ¿",
        "Ð»Ð°Ñĩ"
      ],
      [
        "ÑĨ",
        "ÐµÑĢ"
      ],
      [
        "ÑĨ",
        "Ð°ÑĤÑĮ"
      ],
      [
        "Ñı",
        "Ð»Ð¸"
      ],
      [
        "Ñı",
        "Ñĩ"
      ],
      [
        "Ñı",
        "Ð³"
      ],
      [
        "Ñı",
        "Ñī"
      ],
      [
        "Ñı",
        "Ð½Ð¸"
      ],
      [
        "ÑĤÐ¸",
        "Ð»Ð¸"
      ],
      [
        "ÑĤÐ¸",
        "Ð½ÐºÐ¸"
      ],
      [
        "ĠÑģ",
        "p"
      ],
      [
        "ĠÑģ",
        "Ð½"
      ],
      [
        "ĠÑģ",
        "Ñĩ"
      ],
      [
        "ĠÑģ",
        "Ð¾Ð²"
      ],
      [
        "ĠÑģ",
        "ÐºÑĥ"
      ],
      [
        "ĠÑģ",
        "Ð¾Ð³"
      ],
      [
        "ĠÑģ",
        "ÐµÐ¼"
      ],
      [
        "ĠÑģ",
        "Ð²ÐµÑĢ"
      ],
      [
        "ĠÑģ",
        "Ð¾Ð·"
      ],
      [
        "ĠÑģ",
        "Ð°Ñħ"
      ],
      [
        "ĠÑģ",
        "ÑĥÑħ"
      ],
      [
        "ĠÑģ",
        "ÑĢÐµÐ´"
      ],
      [
        "ĠÑģ",
        "Ð¾ÑĢÐ¾Ðº"
      ],
      [
        "ĠÑģ",
        "Ð»Ð¸ÑĪ"
      ],
      [
        "ĠÐ²",
        "Ð¾"
      ],
      [
        "ĠÐ²",
        "ÐµÑĤ"
      ],
      [
        "ĠÐ²",
        "Ð¿"
      ],
      [
        "ĠÐ²",
        "ÑģÑı"
      ],
      [
        "ĠÐ²",
        "Ð¾Ñģ"
      ],
      [
        "ĠÐ²",
        "Ð¾ÑĢ"
      ],
      [
        "ĠÐ²",
        "ÐµÐ´"
      ],
      [
        "ĠÐ²",
        "Ð¾ÑĤ"
      ],
      [
        "ĠÐ²",
        "Ð¾Ð¿"
      ],
      [
        "ĠÐ²",
        "Ð°Ð¶"
      ],
      [
        "ĠÐ²",
        "ÑħÐ¾Ð´Ð¸ÑĤ"
      ],
      [
        "ĠÐ²",
        "Ð°Ð¼Ð¸"
      ],
      [
        "ĠÐ²",
        "Ð¾ÑģÐº"
      ],
      [
        "ĠÐ²",
        "ÐºÐ»ÑİÑĩ"
      ],
      [
        "ĠÐ²",
        "ÐµÑĢÐµÐ²"
      ],
      [
        "ĠÐ²",
        "Ð°Ð³Ð¾"
      ],
      [
        "ĠÐ²",
        "ÑģÑĤÐ°Ð»"
      ],
      [
        "Ñĭ",
        "Ñĩ"
      ],
      [
        "Ñĭ",
        "Ð³ÑĢ"
      ],
      [
        "Ñĭ",
        "ÑĩÐ½Ð¾"
      ],
      [
        "Ð¼",
        "Ð°"
      ],
      [
        "Ð¼",
        "Ñĭ"
      ],
      [
        "Ð¼",
        "ÐµÑĪ"
      ],
      [
        "Ñĩ",
        "ÐµÐ½Ð¸"
      ],
      [
        "Ñĩ",
        "Ð°Ð»Ð¾"
      ],
      [
        "Ñĩ",
        "Ð°ÐµÑĤÐµ"
      ],
      [
        "Ñĩ",
        "ÐµÑģÐºÐ¸Ð¹"
      ],
      [
        "Ð´",
        "Ñĭ"
      ],
      [
        "Ð´",
        "Ð°Ð»"
      ],
      [
        "Ð´",
        "Ð½Ð¾"
      ],
      [
        "Ð´",
        "Ð¾Ð»"
      ],
      [
        "Ð´",
        "Ð°Ð²"
      ],
      [
        "Ð´",
        "Ð¾ÑĤ"
      ],
      [
        "Ð´",
        "ÐµÐ²"
      ],
      [
        "Ð´",
        "Ð¸Ñĩ"
      ],
      [
        "Ð´",
        "Ð½Ð°Ð¶"
      ],
      [
        "ĠÐ½",
        "Ð¾Ð²"
      ],
      [
        "ĠÐ½",
        "Ð°Ð¼"
      ],
      [
        "ĠÐ½",
        "ÐµÐ¹"
      ],
      [
        "ĠÐ½",
        "Ð¾Ð³"
      ],
      [
        "ĠÐ½",
        "ÐµÐ±"
      ],
      [
        "ĠÐ½",
        "ÐµÐ¿"
      ],
      [
        "ĠÐ½",
        "Ð¸Ñħ"
      ],
      [
        "Ð°Ð»",
        "Ð¾ÑģÑĮ"
      ],
      [
        "Ð°Ð»",
        "ÑıÐ²"
      ],
      [
        "Ð°Ð»",
        "ÐµÐ½ÑĮ"
      ],
      [
        "ÐµÑĢ",
        "ÐµÐ´"
      ],
      [
        "ÐµÑĢ",
        "ÐºÐ°"
      ],
      [
        "ÑĪ",
        "Ðº"
      ],
      [
        "ÑĪ",
        "ÑĮ"
      ],
      [
        "ĠÐ¸",
        "Ð»Ð¸"
      ],
      [
        "Ñİ",
        "ÑģÑĮ"
      ],
      [
        "Ñİ",
        "ÑĢÐ¾"
      ],
      [
        "ĠÐ¨ÑĤÐ¸ÑĢÐ»Ð¸ÑĨ",
        "ÐµÐ¼"
      ],
      [
        "ĠÐ¾",
        "Ð¿"
      ],
      [
        "ĠÐ¾",
        "Ð·"
      ],
      [
        "ĠÐ¾",
        "ÐºÑĢ"
      ],
      [
        "ĠÐ¾",
        "Ð³Ð¾"
      ],
      [
        "ĠÐ¾",
        "ÑģÑĤÐ°Ð²"
      ],
      [
        "ĠÐ¾",
        "Ð³ÑĢ"
      ],
      [
        "ĠÐ¾",
        "ÑĢÑĥÐ¶"
      ],
      [
        "ÐµÑĤ",
        "ÐµÐ»"
      ],
      [
        "ÐµÑĤ",
        "Ð½Ð¾"
      ],
      [
        "ÐµÑĤ",
        "ÐµÐ¹"
      ],
      [
        "ÐµÑĤ",
        "Ð½Ð¸Ñĩ"
      ],
      [
        "ÑĤÐ¾",
        "ÑĢÑĥ"
      ],
      [
        "ĠÐº",
        "Ð¸Ð´"
      ],
      [
        "ĠÐº",
        "Ð°Ð¿"
      ],
      [
        "ĠÐº",
        "ÑĥÑĩ"
      ],
      [
        "ÐµÐ»",
        "Ð¾Ð²"
      ],
      [
        "ÐµÐ»",
        "Ð°ÑģÑĮ"
      ],
      [
        "ÐµÐ»",
        "ÑĭÐ¹"
      ],
      [
        "Ð¾Ð´",
        "Ð¸Ð»"
      ],
      [
        "ĠÐ´",
        "ÑĥÐ¼"
      ],
      [
        "ĠÐ´",
        "Ð°Ð»Ð¸"
      ],
      [
        "ĠÐ´",
        "Ð°ÑĤÑĮ"
      ],
      [
        "ĠÐ´",
        "Ð¾Ð±"
      ],
      [
        "ĠÐ´",
        "ÐµÐ·"
      ],
      [
        "ĠÐ´",
        "Ð²Ðµ"
      ],
      [
        "ĠÐ´",
        "ÑĭÐ¼"
      ],
      [
        "ĠÐ´",
        "Ð¾Ð½ÐµÑģ"
      ],
      [
        "ĠÐ´",
        "ÐµÑĤÐµÐ¹"
      ],
      [
        "Ñħ",
        "Ñĥ"
      ],
      [
        "Ñħ",
        "ÑĥÑĪ"
      ],
      [
        "Ñħ",
        "Ð°ÑĢÐ°ÐºÑĤÐµÑĢ"
      ],
      [
        "ĠÑĥ",
        "ÐºÑĢ"
      ],
      [
        "ĠÑĥ",
        "ÑħÐ¾Ð´"
      ],
      [
        "ĠÑĥ",
        "Ð³Ð»"
      ],
      [
        "Ð¾Ð¼",
        "Ð±"
      ],
      [
        "ÐµÐ½",
        "Ð¾"
      ],
      [
        "ÐµÐ½",
        "Ð¾Ð¼"
      ],
      [
        "ÐµÐ½",
        "Ð¾Ð²"
      ],
      [
        "ÐµÐ½",
        "Ð·"
      ],
      [
        "ÐµÐ½",
        "ÑĨÐ¸Ñİ"
      ],
      [
        "ÐµÐ½",
        "Ð½ÑĭÑħ"
      ],
      [
        "Ð¾Ð²",
        "Ð¾Ð¹"
      ],
      [
        "Ð¾Ð²",
        "Ð°Ð²"
      ],
      [
        "Ð¾Ð²",
        "Ð¸Ðº"
      ],
      [
        "Ð¾Ð²",
        "ÑĭÐ¹"
      ],
      [
        "ĠÐ·",
        "Ð°Ñģ"
      ],
      [
        "ĠÐ·",
        "Ð°ÑĤ"
      ],
      [
        "ĠÐ·",
        "Ð²ÐµÑĢ"
      ],
      [
        "ĠÐ·",
        "Ð½Ð°"
      ],
      [
        "ĠÐ·",
        "Ð°Ð¹"
      ],
      [
        "ĠÐ·",
        "Ð²Ð¾Ð½"
      ],
      [
        "ĠÐ·",
        "Ð½Ð°Ñĩ"
      ],
      [
        "ĠÐ·",
        "ÐµÑĢÐº"
      ],
      [
        "Ð¿",
        "Ð¾ÑĢ"
      ],
      [
        "Ð¿",
        "Ð»Ñİ"
      ],
      [
        "Ð¿",
        "ÑĢÑĭ"
      ],
      [
        "Ð¿",
        "Ð¸ÑģÑĮ"
      ],
      [
        "Ð¿",
        "Ð¸Ð¾Ð½"
      ],
      [
        "Ð¿",
        "Ð°ÐºÐ¾Ð¼"
      ],
      [
        "ÑģÑĤ",
        "ÑĥÑĩ"
      ],
      [
        "ĠÑĢ",
        "Ð¾Ð´"
      ],
      [
        "ĠÑĢ",
        "Ð¾ÑĤ"
      ],
      [
        "ĠÑĢ",
        "Ð¶"
      ],
      [
        "ĠÑĢ",
        "Ð¾Ð¶"
      ],
      [
        "ĠÑĢ",
        "ÑĥÑĩ"
      ],
      [
        "ĠÑĢ",
        "ÑĥÐ±"
      ],
      [
        "ĠÑĢ",
        "Ð¾Ð´Ð¸Ð½"
      ],
      [
        "ĠÑĢ",
        "Ð°ÑģÑĤ"
      ],
      [
        "ĠÑĢ",
        "Ð¾Ð²Ð½Ð¾"
      ],
      [
        "ĠÐ±",
        "Ð¾Ð»"
      ],
      [
        "ĠÐ±",
        "ÐµÑģ"
      ],
      [
        "ĠÐ±",
        "Ð°ÑĪ"
      ],
      [
        "ĠÐ±",
        "ÑĢÐ¾ÑģÐ¸Ð»"
      ],
      [
        "ĠÐ±",
        "ÐµÐ¶Ð°Ð»"
      ],
      [
        "ĠÐ±",
        "Ð°Ð½Ð´"
      ],
      [
        "ĠÐ±",
        "ÑĥÐ½"
      ],
      [
        "ĠÐ±",
        "Ð»Ð¸Ð·"
      ],
      [
        "ĠÐ±",
        "Ð¾Ð¼Ð±"
      ],
      [
        "ÑģÑı",
        "ÑĤ"
      ],
      [
        "Ð°Ð½",
        "Ðº"
      ],
      [
        "Ð°Ð½",
        "Ð½ÑĥÑİ"
      ],
      [
        "Ð°Ð½",
        "ÑĨÐµÐ»ÑıÑĢÐ¸"
      ],
      [
        "ĠÐ¿Ð¾",
        "ÑĢ"
      ],
      [
        "ĠÐ¿Ð¾",
        "ÑģÑĤÑĥÑĩ"
      ],
      [
        "ĠÐ½Ð°",
        "ÑģÑĤ"
      ],
      [
        "ĠÐ¼",
        "Ñĭ"
      ],
      [
        "ĠÐ¼",
        "Ð¾Ð³"
      ],
      [
        "ĠÐ¼",
        "ÑĭÐ»"
      ],
      [
        "ĠÐ¼",
        "Ð°Ð³"
      ],
      [
        "ĠÐ¼",
        "Ð°Ð¹"
      ],
      [
        "ĠÐ¼",
        "ÐµÑĪ"
      ],
      [
        "ĠÐ¼",
        "Ð½Ð¾Ð³Ð¾"
      ],
      [
        "ĠÐ¼",
        "Ð¾Ð³Ñĥ"
      ],
      [
        "ĠÐ¼",
        "ÐµÑģÑĤÐ¾"
      ],
      [
        "ĠÐ¼",
        "Ð°Ð»ÐµÐ½ÑĮ"
      ],
      [
        "Ð°Ð·",
        "Ð°Ð½Ð¸Ðµ"
      ],
      [
        "ĠÑĤ",
        "Ðµ"
      ],
      [
        "ĠÑĤ",
        "Ð°Ð±"
      ],
      [
        "ĠÑĤ",
        "Ð°Ð¹"
      ],
      [
        "ĠÑĤ",
        "Ð¾Ð³Ð¾"
      ],
      [
        "ĠÑĤ",
        "ÐµÐº"
      ],
      [
        "ĠÑĤ",
        "Ð¾Ð³Ð´Ð°"
      ],
      [
        "ĠÑĤ",
        "Ð¾Ð¼Ñĥ"
      ],
      [
        "ĠÑĤ",
        "Ð°Ð½Ðº"
      ],
      [
        "Ð¸ÑĤ",
        "Ð°Ð²"
      ],
      [
        "Ð·",
        "ÑĭÐº"
      ],
      [
        "Ð·",
        "Ð¾Ð²Ð¸Ðº"
      ],
      [
        "Ð±",
        "Ñĭ"
      ],
      [
        "Ð±",
        "ÑĥÑģ"
      ],
      [
        "Ð±",
        "Ð»Ð¾Ðº"
      ],
      [
        "Ð±",
        "ÑİÑĢÐ¾"
      ],
      [
        "ĠÐ½Ðµ",
        "ÑģÐº"
      ],
      [
        "ĠÐ½Ðµ",
        "ÑĥÐ´"
      ],
      [
        "ĠÐ½Ðµ",
        "Ð¾Ð¶Ð¸Ð´Ð°Ð½Ð½Ð¾"
      ],
      [
        "ĠÐ½Ðµ",
        "Ð²ÐºÑĥ"
      ],
      [
        "ĠÐ¿ÑĢ",
        "Ð¾Ðº"
      ],
      [
        "ĠÐ¿ÑĢ",
        "Ð¾Ñĩ"
      ],
      [
        "ĠÐ¿ÑĢ",
        "Ð¾Ð½ÐµÑģ"
      ],
      [
        "Ð°Ñģ",
        "ÐºÐ¸"
      ],
      [
        "ľÑİ",
        "Ð»ÐµÑĢ"
      ],
      [
        "Ð¾Ð¹",
        "Ð¼"
      ],
      [
        "ÑĦ",
        "Ð¾Ð»"
      ],
      [
        "ĠÐ¿Ð¾Ð´",
        "Ñģ"
      ],
      [
        "ĠÐ¿Ð¾Ð´",
        "Ð²"
      ],
      [
        "ĠÐ¿Ð¾Ð´",
        "Ð¾Ð·"
      ],
      [
        "Ð°Ðº",
        "ÑģÐ¸Ð¼"
      ],
      [
        "ĠÑĩ",
        "ÐµÑĤ"
      ],
      [
        "ĠÑĩ",
        "Ð¸ÑĤ"
      ],
      [
        "Ð¾ÑĢ",
        "Ð¾Ð´"
      ],
      [
        "Ð¾ÑĢ",
        "Ð¾ÑĪ"
      ],
      [
        "Ð¾ÑĢ",
        "Ð¼Ðµ"
      ],
      [
        "Ð¾ÑĢ",
        "Ð¾ÑģÑĤÑĮÑİ"
      ],
      [
        "Ð¾ÑĢ",
        "ÑıÑĩ"
      ],
      [
        "Ð¸Ð½",
        "ÐµÑĨ"
      ],
      [
        "ÑĥÐ¼",
        "Ð°Ð»Ð¸"
      ],
      [
        "ÑĥÐ¼",
        "ÑĭÐ²"
      ],
      [
        "ÑĥÐ¼",
        "ÑĭÐ²Ð°Ñı"
      ],
      [
        "Ð½Ð¾",
        "ÑģÑĤÑĮÑİ"
      ],
      [
        "ÐºÐ¸",
        "Ðµ"
      ],
      [
        "Ð°ÑĤ",
        "Ð½ÑĥÑİ"
      ],
      [
        "Ð°ÑĤ",
        "ÑĭÐµ"
      ],
      [
        "Ð¹",
        "ÑĨÐ°"
      ],
      [
        "Ð¸Ð´",
        "Ð¸ÑĤ"
      ],
      [
        "ĠÐ³",
        "Ð¾Ð´"
      ],
      [
        "ĠÐ³",
        "Ð°Ð´"
      ],
      [
        "ĠÐ³",
        "Ð½Ð°Ð»"
      ],
      [
        "Ð¾Ð½",
        "Ñĥ"
      ],
      [
        "Ð¾Ð½",
        "Ð¾Ð²"
      ],
      [
        "Ð¾Ð½",
        "Ð°Ð»Ð¸"
      ],
      [
        "Ð¾Ð½",
        "ÐµÑĨ"
      ],
      [
        "Ð¾Ð»",
        "Ð³"
      ],
      [
        "Ð¾Ð»",
        "Ð»ÐµÐ¹"
      ],
      [
        "Ð°ÑĢ",
        "Ñĥ"
      ],
      [
        "Ð°ÑĢ",
        "Ð¾Ð²"
      ],
      [
        "Ð°ÑĢ",
        "Ð¸Ðº"
      ],
      [
        "Ð°Ð´",
        "Ð¸"
      ],
      [
        "Ð°Ð´",
        "Ð¾Ð¹"
      ],
      [
        "ĠÐĴ",
        "Ð°Ð¼"
      ],
      [
        "ĠÐĴ",
        "ÑģÐ¿"
      ],
      [
        "ĠÐ²Ñĭ",
        "ÐºÑĢ"
      ],
      [
        "ĠÐ²Ñĭ",
        "ÑħÐ¾Ð´"
      ],
      [
        "ĠÐ²Ñĭ",
        "Ð³Ð»Ñı"
      ],
      [
        "ĠÐ²Ñĭ",
        "Ð´Ð°Ð»ÑģÑı"
      ],
      [
        "ĠÐľÑİÐ»Ð»ÐµÑĢ",
        "Ð¾Ð¼"
      ],
      [
        "Ð³",
        "Ñĥ"
      ],
      [
        "ÐµÐ´",
        "Ñĥ"
      ],
      [
        "ĠÐ¾ÑĤ",
        "Ð±"
      ],
      [
        "ĠÐ¾ÑĤ",
        "ÐµÑĨ"
      ],
      [
        "Ð°Ð²",
        "ÑģÑĤÑĢÐµ"
      ],
      [
        "Ð°Ð²",
        "ÑĤÑĢÐ°"
      ],
      [
        "Ð°Ð²",
        "Ð°Ð¹ÑĤÐµ"
      ],
      [
        "Ð°Ð²",
        "ÐµÑģÐºÐ¸"
      ],
      [
        "Ð°Ð²",
        "ÑĪÐµÐ³Ð¾"
      ],
      [
        "Ð½Ñĥ",
        "ÐµÑĤ"
      ],
      [
        "ĠÐ»",
        "Ð¾Ð¶"
      ],
      [
        "ĠÐ»",
        "ÑĥÑĩ"
      ],
      [
        "ĠÐ»",
        "ÐµÐ¶"
      ],
      [
        "ĠÐ»",
        "ÐµÐ¶Ð°Ð»"
      ],
      [
        "ĠÐµ",
        "ÑģÑĤÑĮ"
      ],
      [
        "Ð¾Ð³",
        "Ð°"
      ],
      [
        "Ð¾Ð³",
        "Ð°ÑĤÑĭÐµ"
      ],
      [
        "ÐµÑģ",
        "ÑĤÐ¸"
      ],
      [
        "ÐµÑģ",
        "ÐºÑĥ"
      ],
      [
        "ÐµÑģ",
        "Ð»Ð¾"
      ],
      [
        "ĠÐ¿Ð¾Ð´ÑĥÐ¼Ð°Ð»",
        "Ð°"
      ],
      [
        "ĠÐŁ",
        "Ð¾"
      ],
      [
        "ĠÐŁ",
        "Ð¾Ð¶"
      ],
      [
        "ĠÐŁ",
        "Ð°ÑģÑĤÐ¾ÑĢ"
      ],
      [
        "ĠÐŁ",
        "Ð¸ÑĪ"
      ],
      [
        "ĠÐŁ",
        "ÑĢÐ¾Ð½"
      ],
      [
        "ĠÐŁ",
        "Ð¾ÑģÐ»Ðµ"
      ],
      [
        "ÑĢÑĥ",
        "Ð´"
      ],
      [
        "ÑĢÑĥ",
        "Ð±"
      ],
      [
        "ÑĢÑĥ",
        "Ð¿Ð¿"
      ],
      [
        "ĠÐ·Ð°",
        "ÑĩÐµÐ¼"
      ],
      [
        "ĠÐ·Ð°",
        "ÑħÐ¾ÑĤ"
      ],
      [
        "Ñī",
        "ÐµÐ½Ð½Ð¾"
      ],
      [
        "ÐµÐ²",
        "Ð¾Ð¹"
      ],
      [
        "ÐµÐ²",
        "ÑĭÐ²Ð°Ñı"
      ],
      [
        "ĠÑĢÐ°Ð·",
        "Ð´"
      ],
      [
        "ĠÑĢÐ°Ð·",
        "Ð³"
      ],
      [
        "ĠÑĢÐ°Ð·",
        "ÑĭÐ³ÑĢ"
      ],
      [
        "ĠÐ¡",
        "Ð¿"
      ],
      [
        "ĠÐ¡",
        "Ð²ÐµÑĢ"
      ],
      [
        "ĠÐ¡",
        "Ð¡"
      ],
      [
        "ĠÐ¡",
        "Ð¾Ð²ÐµÑĤ"
      ],
      [
        "ĠÐ¡",
        "Ð¾ÑĢÐ¾Ðº"
      ],
      [
        "ĠÐ¡",
        "Ð»Ð¾Ð½"
      ],
      [
        "ĠÐ¡",
        "ÐºÐ¾Ð»ÑĮÐºÐ¾"
      ],
      [
        "ĠÐĿ",
        "Ð¾"
      ],
      [
        "ĠÐĿ",
        "Ð°Ð²ÑģÑĤÑĢÐµ"
      ],
      [
        "ĠÐ¾Ð½",
        "Ð¸"
      ],
      [
        "Ð°Ð±",
        "Ð°"
      ],
      [
        "Ð¾Ðº",
        "Ð¾Ð¹"
      ],
      [
        "Ð¾Ðº",
        "Ð¾Ð»"
      ],
      [
        "Ð¾Ðº",
        "ÐµÑĤÐ½Ð¸Ñĩ"
      ],
      [
        "ÐµÐ·",
        "Ð¸Ð´"
      ],
      [
        "ÐµÐ·",
        "Ð´Ð°"
      ],
      [
        "ĠÑĤÐ¾",
        "ÑĢ"
      ],
      [
        "ĠÑĤÐ¾",
        "ÑģÐº"
      ],
      [
        "ĠÑĤÐ¾",
        "ÑĩÐ½Ð¾"
      ],
      [
        "ĠÐļ",
        "ÑĤÐ¾"
      ],
      [
        "ĠÐļ",
        "Ð¾Ð¿"
      ],
      [
        "ĠÐļ",
        "Ð¾Ð³Ð´Ð°"
      ],
      [
        "ĠÐļ",
        "Ðł"
      ],
      [
        "ÑĭÐ²",
        "Ð°ÑĤÑĮ"
      ],
      [
        "ÑĭÐ²",
        "Ð°Ð»Ð°ÑģÑĮ"
      ],
      [
        "ĠÑı",
        "Ð·ÑĭÐº"
      ],
      [
        "ĠÑı",
        "Ð±Ð»Ð¾Ðº"
      ],
      [
        "ĠÑı",
        "Ð¹ÑĨÐ°"
      ],
      [
        "ÑıÑĤ",
        "Ð¾Ð¹"
      ],
      [
        "Ð¾Ñĩ",
        "Ð½Ð¾"
      ],
      [
        "Ð¾Ñĩ",
        "ÐºÐ°"
      ],
      [
        "Ð¾Ñĩ",
        "ÐµÑģÑĤ"
      ],
      [
        "ĠÑį",
        "Ð»Ðµ"
      ],
      [
        "ĠÑģÐº",
        "Ð¾Ð»ÑĮÐºÐ¾"
      ],
      [
        "ĠÑģÐº",
        "Ð°Ð¶Ñĥ"
      ],
      [
        "ĠÑģÐº",
        "Ð¾ÑĢÐ¾ÑģÑĤÑĮÑİ"
      ],
      [
        "ĠÐ¸Ð·",
        "Ð¼ÐµÐ½"
      ],
      [
        "ÑĤÐ¾ÑĢ",
        "Ð°"
      ],
      [
        "ĠÐĳ",
        "Ð¾p"
      ],
      [
        "ÐºÐ¾",
        "Ðµ"
      ],
      [
        "ĠÐ°",
        "Ð³"
      ],
      [
        "ĠÑģÐ¿",
        "Ð°Ð»"
      ],
      [
        "ĠÑģÐ¿",
        "Ð¸Ð½"
      ],
      [
        "ĠÑģÐ¿",
        "Ð¾ÐºÐ¾Ð¹"
      ],
      [
        "ĠÐ¾Ð±",
        "Ð»"
      ],
      [
        "ĠÐ¾Ð±",
        "ÑĢÐ°"
      ],
      [
        "ĠÐ¾Ð±",
        "ÑıÐ·"
      ],
      [
        "ĠÐ¾Ð±",
        "Ð¾Ð¸"
      ],
      [
        "Ð¸Ð²",
        "ÑĪÐ¸ÑģÑĮ"
      ],
      [
        "Ð¸Ð²",
        "Ð°ÐµÑĤÑģÑı"
      ],
      [
        "Ð»Ðµ",
        "ÑĦÐ°Ð½ÑĤ"
      ],
      [
        "ÑĢÐµ",
        "Ñī"
      ],
      [
        "Ð¼Ñĥ",
        "Ð½Ð¸ÑģÑĤÐ¸"
      ],
      [
        "Ð¼Ñĥ",
        "ÑīÐµÐ½Ð½Ð¾"
      ],
      [
        "ÑħÐ¾Ð´",
        "Ñı"
      ],
      [
        "ÑħÐ¾Ð´",
        "Ð¸Ð»"
      ],
      [
        "Ð°Ð·Ð°Ð»",
        "Ð°ÑģÑĮ"
      ],
      [
        "ĠÑĪ",
        "ÑĥÐ¼"
      ],
      [
        "ĠÑĪ",
        "ÐµÑģÑĤ"
      ],
      [
        "ĠÑĪ",
        "Ð¿Ð¸Ð¾Ð½"
      ],
      [
        "Ð¾Ð¿",
        "ÑĭÑħ"
      ],
      [
        "Ð¾Ð¿",
        "Ð»Ð°Ð²"
      ],
      [
        "ĠÐ²Ñģ",
        "ÐµÐ³"
      ],
      [
        "ÐµÐ±",
        "ÑĥÐµÑĤÑģÑı"
      ],
      [
        "ÐĴ",
        "Ñĭ"
      ],
      [
        "ÐĴ",
        "Ð°Ð»ÑĮ"
      ],
      [
        "ÐŁ",
        "Ð¾Ð´"
      ],
      [
        "ÐŁ",
        "Ð°ÑģÑĤÐ¾ÑĢ"
      ],
      [
        "ÐŁ",
        "ÑĢÐ¾"
      ],
      [
        "ÐŁ",
        "ÑĢÐ¸"
      ],
      [
        "ÐŁ",
        "ÑĢÐ°Ð²Ð´Ð°"
      ],
      [
        "ĠÐĶ",
        "ÑĢÐµÐ·Ð´"
      ],
      [
        "ĠÐĶ",
        "Ð°Ð²Ð°Ð¹ÑĤÐµ"
      ],
      [
        "ĠÐł",
        "ÑıÐ·"
      ],
      [
        "ĠÐł",
        "Ð°Ð½ÑĮÑĪÐµ"
      ],
      [
        "Ð¾Ð·",
        "Ð³Ð»"
      ],
      [
        "ĠÐ¶",
        "Ð¸Ð·Ð½"
      ],
      [
        "Ð¸Ñģ",
        "Ð°Ð½Ð¾"
      ],
      [
        "ĠÑĦ",
        "Ð¾ÑĢÐ¼Ðµ"
      ],
      [
        "ĠÐĲ",
        "Ð±"
      ],
      [
        "ĠÐĺ",
        "ÑģÐ¿"
      ],
      [
        "ÑĥÑĤ",
        "ÑĮ"
      ],
      [
        "Ð°Ð½Ð¸",
        "ÑĨÑĭ"
      ],
      [
        "Ð¸Ñĩ",
        "ÑĮ"
      ],
      [
        "ĠÐŀ",
        "Ð½Ð°"
      ],
      [
        "ĠÐŀ",
        "Ð´Ð½Ð°Ð¶"
      ],
      [
        "ĠÐĵ",
        "Ð¾ÑĢÐ¾Ð´"
      ],
      [
        "ĠÐľ",
        "Ð¾Ð¶"
      ],
      [
        "ĠÐľ",
        "Ð¸Ð¼Ð¾"
      ],
      [
        "ĠÐľ",
        "Ð°ÐºÑģÐ¸Ð¼"
      ],
      [
        "Ð»Ñı",
        "ÑİÑģÑĮ"
      ],
      [
        "ÑģÐº",
        "Ð°Ð¶"
      ],
      [
        "ÑģÐº",
        "Ð°Ð·Ð°Ð»Ð°"
      ],
      [
        "ÑģÐº",
        "Ð°Ð½ÑĨÐµÐ»ÑıÑĢÐ¸"
      ],
      [
        "ÐµÐ½Ð¸",
        "Ñı"
      ],
      [
        "ÐµÐ½Ð¸",
        "Ð¹"
      ],
      [
        "ĠÐ±Ñĭ",
        "ÑģÑĤ"
      ],
      [
        "ĠÑħ",
        "Ð¸ÑĤ"
      ],
      [
        "ĠÑħ",
        "Ð°ÑĢÐ°ÐºÑĤÐµÑĢ"
      ],
      [
        "ĠÑħ",
        "Ð°Ð»ÑıÐ²"
      ],
      [
        "ĠÑħ",
        "Ð¾ÑĢÐ¾ÑĪ"
      ],
      [
        "Ð°Ñħ",
        "Ð½ÑĥÐ»ÑģÑı"
      ],
      [
        "ĠÐ¼Ð°ÑĪ",
        "Ð±ÑİÑĢÐ¾"
      ],
      [
        "ĠÐ¿ÑĢÐ¸",
        "ÑĪ"
      ],
      [
        "ĠÐ¿ÑĢÐ¸",
        "ÑĪÐµÐ»"
      ],
      [
        "ĠÐ¿ÑĢÐ¸",
        "Ð·Ð½"
      ]
    ]
  }
}